{
  "version": "1.0",
  "truncation": null,
  "padding": null,
  "added_tokens": [
    {
      "id": 0,
      "content": "<|endoftext|>",
      "single_word": false,
      "lstrip": false,
      "rstrip": false,
      "normalized": false,
      "special": true
    },
    {
      "id": 1,
      "content": "<|im_start|>",
      "single_word": false,
      "lstrip": false,
      "rstrip": false,
      "normalized": false,
      "special": true
    },
    {
      "id": 2,
      "content": "<|im_end|>",
      "single_word": false,
      "lstrip": false,
      "rstrip": false,
      "normalized": false,
      "special": true
    },
    {
      "id": 3,
      "content": "<|object_ref_start|>",
      "single_word": false,
      "lstrip": false,
      "rstrip": false,
      "normalized": false,
      "special": true
    },
    {
      "id": 4,
      "content": "<|object_ref_end|>",
      "single_word": false,
      "lstrip": false,
      "rstrip": false,
      "normalized": false,
      "special": true
    },
    {
      "id": 5,
      "content": "<|box_start|>",
      "single_word": false,
      "lstrip": false,
      "rstrip": false,
      "normalized": false,
      "special": true
    },
    {
      "id": 6,
      "content": "<|box_end|>",
      "single_word": false,
      "lstrip": false,
      "rstrip": false,
      "normalized": false,
      "special": true
    },
    {
      "id": 7,
      "content": "<|quad_start|>",
      "single_word": false,
      "lstrip": false,
      "rstrip": false,
      "normalized": false,
      "special": true
    },
    {
      "id": 8,
      "content": "<|quad_end|>",
      "single_word": false,
      "lstrip": false,
      "rstrip": false,
      "normalized": false,
      "special": true
    },
    {
      "id": 9,
      "content": "<|vision_start|>",
      "single_word": false,
      "lstrip": false,
      "rstrip": false,
      "normalized": false,
      "special": true
    },
    {
      "id": 10,
      "content": "<|vision_end|>",
      "single_word": false,
      "lstrip": false,
      "rstrip": false,
      "normalized": false,
      "special": true
    },
    {
      "id": 11,
      "content": "<|vision_pad|>",
      "single_word": false,
      "lstrip": false,
      "rstrip": false,
      "normalized": false,
      "special": true
    },
    {
      "id": 12,
      "content": "<|image_pad|>",
      "single_word": false,
      "lstrip": false,
      "rstrip": false,
      "normalized": false,
      "special": true
    },
    {
      "id": 13,
      "content": "<|video_pad|>",
      "single_word": false,
      "lstrip": false,
      "rstrip": false,
      "normalized": false,
      "special": true
    },
    {
      "id": 14,
      "content": "<|audio_start|>",
      "single_word": false,
      "lstrip": false,
      "rstrip": false,
      "normalized": false,
      "special": true
    },
    {
      "id": 15,
      "content": "<|audio_end|>",
      "single_word": false,
      "lstrip": false,
      "rstrip": false,
      "normalized": false,
      "special": true
    },
    {
      "id": 16,
      "content": "<|audio_pad|>",
      "single_word": false,
      "lstrip": false,
      "rstrip": false,
      "normalized": false,
      "special": true
    },
    {
      "id": 17,
      "content": "<tts_pad>",
      "single_word": false,
      "lstrip": false,
      "rstrip": false,
      "normalized": false,
      "special": true
    },
    {
      "id": 18,
      "content": "<tts_text_bos>",
      "single_word": false,
      "lstrip": false,
      "rstrip": false,
      "normalized": false,
      "special": true
    },
    {
      "id": 19,
      "content": "<tts_text_eod>",
      "single_word": false,
      "lstrip": false,
      "rstrip": false,
      "normalized": false,
      "special": true
    },
    {
      "id": 20,
      "content": "<tts_text_bos_single>",
      "single_word": false,
      "lstrip": false,
      "rstrip": false,
      "normalized": false,
      "special": true
    },
    {
      "id": 21,
      "content": "<tool_call>",
      "single_word": false,
      "lstrip": false,
      "rstrip": false,
      "normalized": false,
      "special": false
    },
    {
      "id": 22,
      "content": "</tool_call>",
      "single_word": false,
      "lstrip": false,
      "rstrip": false,
      "normalized": false,
      "special": false
    },
    {
      "id": 23,
      "content": "<tool_response>",
      "single_word": false,
      "lstrip": false,
      "rstrip": false,
      "normalized": false,
      "special": false
    },
    {
      "id": 24,
      "content": "</tool_response>",
      "single_word": false,
      "lstrip": false,
      "rstrip": false,
      "normalized": false,
      "special": false
    },
    {
      "id": 25,
      "content": "<think>",
      "single_word": false,
      "lstrip": false,
      "rstrip": false,
      "normalized": false,
      "special": false
    },
    {
      "id": 26,
      "content": "</think>",
      "single_word": false,
      "lstrip": false,
      "rstrip": false,
      "normalized": false,
      "special": false
    },
    {
      "id": 27,
      "content": "<|buffer1|>",
      "single_word": false,
      "lstrip": false,
      "rstrip": false,
      "normalized": false,
      "special": false
    },
    {
      "id": 28,
      "content": "<|buffer2|>",
      "single_word": false,
      "lstrip": false,
      "rstrip": false,
      "normalized": false,
      "special": false
    },
    {
      "id": 29,
      "content": "<|buffer3|>",
      "single_word": false,
      "lstrip": false,
      "rstrip": false,
      "normalized": false,
      "special": false
    },
    {
      "id": 30,
      "content": "<|buffer4|>",
      "single_word": false,
      "lstrip": false,
      "rstrip": false,
      "normalized": false,
      "special": false
    },
    {
      "id": 31,
      "content": "<|buffer5|>",
      "single_word": false,
      "lstrip": false,
      "rstrip": false,
      "normalized": false,
      "special": false
    },
    {
      "id": 32,
      "content": "<|buffer6|>",
      "single_word": false,
      "lstrip": false,
      "rstrip": false,
      "normalized": false,
      "special": false
    },
    {
      "id": 33,
      "content": "<|buffer7|>",
      "single_word": false,
      "lstrip": false,
      "rstrip": false,
      "normalized": false,
      "special": false
    },
    {
      "id": 34,
      "content": "<|buffer8|>",
      "single_word": false,
      "lstrip": false,
      "rstrip": false,
      "normalized": false,
      "special": false
    },
    {
      "id": 35,
      "content": "<|buffer9|>",
      "single_word": false,
      "lstrip": false,
      "rstrip": false,
      "normalized": false,
      "special": false
    }
  ],
  "normalizer": null,
  "pre_tokenizer": {
    "type": "ByteLevel",
    "add_prefix_space": false,
    "trim_offsets": true,
    "use_regex": true
  },
  "post_processor": null,
  "decoder": {
    "type": "ByteLevel",
    "add_prefix_space": true,
    "trim_offsets": true,
    "use_regex": true
  },
  "model": {
    "type": "BPE",
    "dropout": null,
    "unk_token": null,
    "continuing_subword_prefix": null,
    "end_of_word_suffix": null,
    "fuse_unk": false,
    "byte_fallback": false,
    "ignore_merges": false,
    "vocab": {
      "<|endoftext|>": 0,
      "<|im_start|>": 1,
      "<|im_end|>": 2,
      "<|object_ref_start|>": 3,
      "<|object_ref_end|>": 4,
      "<|box_start|>": 5,
      "<|box_end|>": 6,
      "<|quad_start|>": 7,
      "<|quad_end|>": 8,
      "<|vision_start|>": 9,
      "<|vision_end|>": 10,
      "<|vision_pad|>": 11,
      "<|image_pad|>": 12,
      "<|video_pad|>": 13,
      "<|audio_start|>": 14,
      "<|audio_end|>": 15,
      "<|audio_pad|>": 16,
      "<tts_pad>": 17,
      "<tts_text_bos>": 18,
      "<tts_text_eod>": 19,
      "<tts_text_bos_single>": 20,
      "<tool_call>": 21,
      "</tool_call>": 22,
      "<tool_response>": 23,
      "</tool_response>": 24,
      "<think>": 25,
      "</think>": 26,
      "<|buffer1|>": 27,
      "<|buffer2|>": 28,
      "<|buffer3|>": 29,
      "<|buffer4|>": 30,
      "<|buffer5|>": 31,
      "<|buffer6|>": 32,
      "<|buffer7|>": 33,
      "<|buffer8|>": 34,
      "<|buffer9|>": 35,
      "!": 36,
      "\"": 37,
      "#": 38,
      "$": 39,
      "%": 40,
      "&": 41,
      "'": 42,
      "(": 43,
      ")": 44,
      "*": 45,
      "+": 46,
      ",": 47,
      "-": 48,
      ".": 49,
      "/": 50,
      "0": 51,
      "1": 52,
      "2": 53,
      "3": 54,
      "4": 55,
      "5": 56,
      "6": 57,
      "7": 58,
      "8": 59,
      "9": 60,
      ":": 61,
      ";": 62,
      "<": 63,
      "=": 64,
      ">": 65,
      "?": 66,
      "@": 67,
      "A": 68,
      "B": 69,
      "C": 70,
      "D": 71,
      "E": 72,
      "F": 73,
      "G": 74,
      "H": 75,
      "I": 76,
      "J": 77,
      "K": 78,
      "L": 79,
      "M": 80,
      "N": 81,
      "O": 82,
      "P": 83,
      "Q": 84,
      "R": 85,
      "S": 86,
      "T": 87,
      "U": 88,
      "V": 89,
      "W": 90,
      "X": 91,
      "Y": 92,
      "Z": 93,
      "[": 94,
      "\\": 95,
      "]": 96,
      "^": 97,
      "_": 98,
      "`": 99,
      "a": 100,
      "b": 101,
      "c": 102,
      "d": 103,
      "e": 104,
      "f": 105,
      "g": 106,
      "h": 107,
      "i": 108,
      "j": 109,
      "k": 110,
      "l": 111,
      "m": 112,
      "n": 113,
      "o": 114,
      "p": 115,
      "q": 116,
      "r": 117,
      "s": 118,
      "t": 119,
      "u": 120,
      "v": 121,
      "w": 122,
      "x": 123,
      "y": 124,
      "z": 125,
      "{": 126,
      "|": 127,
      "}": 128,
      "~": 129,
      "¡": 130,
      "¢": 131,
      "£": 132,
      "¤": 133,
      "¥": 134,
      "¦": 135,
      "§": 136,
      "¨": 137,
      "©": 138,
      "ª": 139,
      "«": 140,
      "¬": 141,
      "®": 142,
      "¯": 143,
      "°": 144,
      "±": 145,
      "²": 146,
      "³": 147,
      "´": 148,
      "µ": 149,
      "¶": 150,
      "·": 151,
      "¸": 152,
      "¹": 153,
      "º": 154,
      "»": 155,
      "¼": 156,
      "½": 157,
      "¾": 158,
      "¿": 159,
      "À": 160,
      "Á": 161,
      "Â": 162,
      "Ã": 163,
      "Ä": 164,
      "Å": 165,
      "Æ": 166,
      "Ç": 167,
      "È": 168,
      "É": 169,
      "Ê": 170,
      "Ë": 171,
      "Ì": 172,
      "Í": 173,
      "Î": 174,
      "Ï": 175,
      "Ð": 176,
      "Ñ": 177,
      "Ò": 178,
      "Ó": 179,
      "Ô": 180,
      "Õ": 181,
      "Ö": 182,
      "×": 183,
      "Ø": 184,
      "Ù": 185,
      "Ú": 186,
      "Û": 187,
      "Ü": 188,
      "Ý": 189,
      "Þ": 190,
      "ß": 191,
      "à": 192,
      "á": 193,
      "â": 194,
      "ã": 195,
      "ä": 196,
      "å": 197,
      "æ": 198,
      "ç": 199,
      "è": 200,
      "é": 201,
      "ê": 202,
      "ë": 203,
      "ì": 204,
      "í": 205,
      "î": 206,
      "ï": 207,
      "ð": 208,
      "ñ": 209,
      "ò": 210,
      "ó": 211,
      "ô": 212,
      "õ": 213,
      "ö": 214,
      "÷": 215,
      "ø": 216,
      "ù": 217,
      "ú": 218,
      "û": 219,
      "ü": 220,
      "ý": 221,
      "þ": 222,
      "ÿ": 223,
      "Ā": 224,
      "ā": 225,
      "Ă": 226,
      "ă": 227,
      "Ą": 228,
      "ą": 229,
      "Ć": 230,
      "ć": 231,
      "Ĉ": 232,
      "ĉ": 233,
      "Ċ": 234,
      "ċ": 235,
      "Č": 236,
      "č": 237,
      "Ď": 238,
      "ď": 239,
      "Đ": 240,
      "đ": 241,
      "Ē": 242,
      "ē": 243,
      "Ĕ": 244,
      "ĕ": 245,
      "Ė": 246,
      "ė": 247,
      "Ę": 248,
      "ę": 249,
      "Ě": 250,
      "ě": 251,
      "Ĝ": 252,
      "ĝ": 253,
      "Ğ": 254,
      "ğ": 255,
      "Ġ": 256,
      "ġ": 257,
      "Ģ": 258,
      "ģ": 259,
      "Ĥ": 260,
      "ĥ": 261,
      "Ħ": 262,
      "ħ": 263,
      "Ĩ": 264,
      "ĩ": 265,
      "Ī": 266,
      "ī": 267,
      "Ĭ": 268,
      "ĭ": 269,
      "Į": 270,
      "į": 271,
      "İ": 272,
      "ı": 273,
      "Ĳ": 274,
      "ĳ": 275,
      "Ĵ": 276,
      "ĵ": 277,
      "Ķ": 278,
      "ķ": 279,
      "ĸ": 280,
      "Ĺ": 281,
      "ĺ": 282,
      "Ļ": 283,
      "ļ": 284,
      "Ľ": 285,
      "ľ": 286,
      "Ŀ": 287,
      "ŀ": 288,
      "Ł": 289,
      "ł": 290,
      "Ń": 291,
      "ï¼": 292,
      "ï¼Į": 293,
      "ãĢ": 294,
      "çļ": 295,
      "çļĦ": 296,
      "ä¸": 297,
      "ãĢĤ": 298,
      "æľ": 299,
      "äº": 300,
      "åı": 301,
      "ä»": 302,
      "æĸ": 303,
      "åħ": 304,
      "åľ": 305,
      "ä½": 306,
      "æĪ": 307,
      "éĢ": 308,
      "æĺ": 309,
      "åĢ": 310,
      "çĶ": 311,
      "Ġt": 312,
      "å°": 313,
      "åĴ": 314,
      "åĴĮ": 315,
      "åĪ": 316,
      "å¤": 317,
      "ä¸Ģ": 318,
      "å®": 319,
      "ĠĠ": 320,
      "æĺ¯": 321,
      "éģ": 322,
      "in": 323,
      "Ġa": 324,
      "ãĢģ": 325,
      "he": 326,
      "åĲ": 327,
      "å¾": 328,
      "åŃ": 329,
      "ä»¥": 330,
      "è¡": 331,
      "åľ¨": 332,
      "è¦": 333,
      "ï¼ļ": 334,
      "on": 335,
      "è¨": 336,
      "åı¯": 337,
      "åĬ": 338,
      "ä¾": 339,
      "re": 340,
      "åĢĭ": 341,
      "æĻ": 342,
      "äºº": 343,
      "ĥ½": 344,
      "å¹": 345,
      "æŃ": 346,
      "**": 347,
      "ä¸Ń": 348,
      "èĢ": 349,
      "çļĦæ": 350,
      "æľī": 351,
      "çĤ": 352,
      "çĶ¨": 353,
      "Ġthe": 354,
      "er": 355,
      "çĤº": 356,
      "å·": 357,
      "âĢ": 358,
      "éĢĻ": 359,
      "éĩ": 360,
      "Ġs": 361,
      "çī": 362,
      "èĥ½": 363,
      "æĪĳ": 364,
      "æķ": 365,
      "çµ": 366,
      "at": 367,
      "åĭ": 368,
      "é¡": 369,
      "èª": 370,
      "è¦ģ": 371,
      "is": 372,
      "çŃ": 373,
      "ç¨": 374,
      "è³": 375,
      "Ġc": 376,
      "å¸": 377,
      "èĩ": 378,
      "è©": 379,
      "en": 380,
      "é«": 381,
      "åĮ": 382,
      "æ³": 383,
      "å¼": 384,
      "åį": 385,
      "ä¸į": 386,
      "æı": 387,
      "es": 388,
      "¦Ĥ": 389,
      "åº": 390,
      "ä¹": 391,
      "or": 392,
      "äºĨ": 393,
      "å¦Ĥ": 394,
      "éĽ": 395,
      "å¥": 396,
      "æī": 397,
      "çĲ": 398,
      "åĢĳ": 399,
      "ä¿": 400,
      "å¯": 401,
      "éĸ": 402,
      "çĽ": 403,
      "an": 404,
      "æĽ": 405,
      "it": 406,
      "éĿ": 407,
      "Ġp": 408,
      "çĻ": 409,
      "çĶŁ": 410,
      "æĸ¼": 411,
      "ç´": 412,
      "åı¯ä»¥": 413,
      "æĻĤ": 414,
      "æĢ": 415,
      "æİ": 416,
      "åĽ": 417,
      "æĶ": 418,
      "le": 419,
      "ä¾Ĩ": 420,
      "èĪ": 421,
      "æĦ": 422,
      "Ġw": 423,
      "èŃ": 424,
      "æľĥ": 425,
      "è§": 426,
      "åĩ": 427,
      "al": 428,
      "ing": 429,
      "æ¨": 430,
      "Ġm": 431,
      "Ġf": 432,
      "è¡Į": 433,
      "æĸĩ": 434,
      "æĪĲ": 435,
      "Ġo": 436,
      "Ġb": 437,
      "æ°": 438,
      "åĵ": 439,
      "å°į": 440,
      "Ġ1": 441,
      "ç¶": 442,
      "ä¸ĭ": 443,
      "åŃ¸": 444,
      "ion": 445,
      "å½": 446,
      "åľ°": 447,
      "åķ": 448,
      "çŃī": 449,
      "éł": 450,
      "éľ": 451,
      "æĸ¹": 452,
      "ä½¿": 453,
      "ĠĠĠĠ": 454,
      "å±": 455,
      "åĪ°": 456,
      "æŀ": 457,
      "çķ": 458,
      "å¹´": 459,
      "åī": 460,
      "æĵ": 461,
      "æıĲ": 462,
      "åĩº": 463,
      "æĹ": 464,
      "æ¯": 465,
      "æħ": 466,
      "ä½ľ": 467,
      "ou": 468,
      "Ġ-": 469,
      "å¤§": 470,
      "åŁ": 471,
      "Ġ**": 472,
      "åĪĨ": 473,
      "éļ": 474,
      "çĦ": 475,
      "ç¾": 476,
      "Ġd": 477,
      "çĲĨ": 478,
      "ä¸ĢåĢĭ": 479,
      "ç«": 480,
      "æĪĸ": 481,
      "éģİ": 482,
      "æĬ": 483,
      "åĭķ": 484,
      "ar": 485,
      "å»": 486,
      "å¿": 487,
      "Ġin": 488,
      "éľĢ": 489,
      "ä¸Ĭ": 490,
      "æĢ§": 491,
      "ä»ĸ": 492,
      "è³ĩ": 493,
      "Ġan": 494,
      "æĽ´": 495,
      "ic": 496,
      "éĻ": 497,
      "ç¢": 498,
      "è®": 499,
      "èĢħ": 500,
      "äºĽ": 501,
      "é«Ķ": 502,
      "åĮĸ": 503,
      "èĩª": 504,
      "æĥ": 505,
      "å·¥": 506,
      "å¼ı": 507,
      "æ³ķ": 508,
      "çı": 509,
      "æ±": 510,
      "Ġto": 511,
      "é¡Į": 512,
      "ä½¿çĶ¨": 513,
      "çĻ¼": 514,
      "å¤ļ": 515,
      "ä¿Ŀ": 516,
      "ĩī": 517,
      "éĤ": 518,
      "éĹ": 519,
      "è«": 520,
      "å®ļ": 521,
      "çī©": 522,
      "åĲĮ": 523,
      "ed": 524,
      "éĢļ": 525,
      "æ¥": 526,
      "ä½ł": 527,
      "åŃĲ": 528,
      "éĹľ": 529,
      "è²": 530,
      "æĮ": 531,
      "Ġn": 532,
      "åľĭ": 533,
      "æľĢ": 534,
      "Ġ2": 535,
      "ro": 536,
      "Ġof": 537,
      "æ¸": 538,
      "åħ¶": 539,
      "è£": 540,
      "ç¤": 541,
      "Ġis": 542,
      "åķı": 543,
      "é»": 544,
      "ç¨®": 545,
      "æ´": 546,
      "åı¯èĥ½": 547,
      "èģ": 548,
      "æº": 549,
      "éĢ²": 550,
      "çı¾": 551,
      "æ²": 552,
      "èĪĩ": 553,
      "©Ł": 554,
      "æĩī": 555,
      "è¿": 556,
      "éĿ¢": 557,
      "éľĢè¦ģ": 558,
      "ä¸¦": 559,
      "æł": 560,
      "å¥½": 561,
      "ç©": 562,
      "åģ": 563,
      "çľ": 564,
      "ï¼ī": 565,
      "å¾Į": 566,
      "è§£": 567,
      "ï¼Ī": 568,
      "å°ĩ": 569,
      "åĬĽ": 570,
      "åĳ": 571,
      "æĭ": 572,
      "è¼": 573,
      "ç·": 574,
      "åĽł": 575,
      "åĬł": 576,
      "ct": 577,
      "ç®": 578,
      "é«ĺ": 579,
      "âĢĿ": 580,
      "âĢľ": 581,
      "æĪĳåĢĳ": 582,
      "as": 583,
      "ç¨ĭ": 584,
      "åº¦": 585,
      "ç¯": 586,
      "ç§": 587,
      "ï¼Ł": 588,
      "éŁ": 589,
      "éĩį": 590,
      "åĲĪ": 591,
      "èĢĮ": 592,
      "æĸ°": 593,
      "åł": 594,
      "æľ¬": 595,
      "æŀľ": 596,
      "é£": 597,
      "çĦ¶": 598,
      "å¸¸": 599,
      "Ġand": 600,
      "Ġe": 601,
      "ent": 602,
      "åħ¬": 603,
      "ä¹ĭ": 604,
      "åĸ": 605,
      "æķ¸": 606,
      "Ġh": 607,
      "ç¢º": 608,
      "è¡¨": 609,
      "éĸĵ": 610,
      "ç¿": 611,
      "Ġ=": 612,
      "å¢": 613,
      "æĤ": 614,
      "æ©Ł": 615,
      "æµ": 616,
      "å®¶": 617,
      "ä¸»": 618,
      "æīĢ": 619,
      "æĬĢ": 620,
      "è¶": 621,
      "ä¹Ł": 622,
      "00": 623,
      "ot": 624,
      "å½±": 625,
      "è¡ĵ": 626,
      "éĥ": 627,
      "Ġl": 628,
      "éº": 629,
      "è¨Ī": 630,
      "æĿ": 631,
      "èĻ": 632,
      "åķıé¡Į": 633,
      "æ¥Ń": 634,
      "é¦": 635,
      "æ¬": 636,
      "åĤ": 637,
      "å¾Ĺ": 638,
      "éĩı": 639,
      "å®ĥ": 640,
      "èĳ": 641,
      "èªŀ": 642,
      "èī": 643,
      "è·": 644,
      "æ¡": 645,
      "åİ": 646,
      "Ġå¹´": 647,
      "om": 648,
      "å°ı": 649,
      "æĹ¥": 650,
      "et": 651,
      "åĥ": 652,
      "æĸĻ": 653,
      "Ġth": 654,
      "å¯¦": 655,
      "Ġ\\": 656,
      "Ġre": 657,
      "è»": 658,
      "ut": 659,
      "å¤©": 660,
      "el": 661,
      "æĦŁ": 662,
      "çī¹": 663,
      "å»º": 664,
      "é¡ŀ": 665,
      "çŁ": 666,
      "æĻº": 667,
      "åĵģ": 668,
      "st": 669,
      "ĠT": 670,
      "ç¶ĵ": 671,
      "ç¸": 672,
      "æŃ¤": 673,
      "ä½Ĩ": 674,
      "åħ¥": 675,
      "ä¼": 676,
      "æĦı": 677,
      "æħ§": 678,
      "éĥ¨": 679,
      "ä¾Ľ": 680,
      "æ¯Ķ": 681,
      "æĻºæħ§": 682,
      "åĲį": 683,
      "éĽ»": 684,
      "æŁ": 685,
      "æĤ¨": 686,
      "æĥħ": 687,
      "éĸĭ": 688,
      "åħ¨": 689,
      "æ¡Ī": 690,
      "çĪ": 691,
      "ç³": 692,
      "é»ŀ": 693,
      "im": 694,
      "è©²": 695,
      "æľĪ": 696,
      "çį": 697,
      "ac": 698,
      "ç¬": 699,
      "Ġ(": 700,
      "è¢": 701,
      "åĬ©": 702,
      "**ï¼ļ": 703,
      "Ġ3": 704,
      "çİ": 705,
      "èĳĹ": 706,
      "ol": 707,
      "èĤ": 708,
      "æ¼": 709,
      "æıĲä¾Ľ": 710,
      "çĴ": 711,
      "å¹³": 712,
      "çĽ¸": 713,
      "åĮħ": 714,
      "##": 715,
      "åħ§": 716,
      "ç¾İ": 717,
      "çµ¦": 718,
      "è«ĭ": 719,
      "åıĬ": 720,
      "å¿ĥ": 721,
      "äºĭ": 722,
      "ķ·": 723,
      "éķ·": 724,
      "çĴ°": 725,
      "çµĲ": 726,
      "æĺİ": 727,
      "çķ¶": 728,
      "åħ·": 729,
      "Ġg": 730,
      "il": 731,
      "ä¾ĭ": 732,
      "è¢«": 733,
      "am": 734,
      "ç¿Ĵ": 735,
      "æ´»": 736,
      "éģ¸": 737,
      "èī²": 738,
      "§ĭ": 739,
      "ow": 740,
      "å±ķ": 741,
      "å¾ŀ": 742,
      "id": 743,
      "éĥ½": 744,
      "è¨Ń": 745,
      "æŃ£": 746,
      "å¤ĸ": 747,
      "èµ": 748,
      "um": 749,
      "Ġ$": 750,
      "ä½į": 751,
      "iv": 752,
      "Ġ\"": 753,
      "éĢ²è¡Į": 754,
      "è®Ĭ": 755,
      "çĲĥ": 756,
      "åĪ¥": 757,
      "è³ĩæĸĻ": 758,
      "çĶ¢": 759,
      "çŃĶ": 760,
      "us": 761,
      "ig": 762,
      "åŀ": 763,
      "ä»¥ä¸ĭ": 764,
      "ä»»": 765,
      "æĬĢè¡ĵ": 766,
      "éĨ": 767,
      "ç®Ĺ": 768,
      "åĭĻ": 769,
      "Ġy": 770,
      "åīį": 771,
      "æ·": 772,
      "å¸Ĥ": 773,
      "çµ±": 774,
      "éĢĻåĢĭ": 775,
      "æ°´": 776,
      "ä¸ĢäºĽ": 777,
      "åĻ": 778,
      "åıĸ": 779,
      "é¤": 780,
      "ç¤¾": 781,
      "éĢļéģİ": 782,
      "è¨Ĭ": 783,
      "å¹«": 784,
      "åĪ©": 785,
      "``": 786,
      "ĠI": 787,
      "éº¼": 788,
      "éĤĦ": 789,
      "åŃĹ": 790,
      "ce": 791,
      "æ®": 792,
      "æľŁ": 793,
      "ĠA": 794,
      "åĨ": 795,
      "åįĢ": 796,
      "å£": 797,
      "ä»£": 798,
      "ation": 799,
      "éģĵ": 800,
      "ĠS": 801,
      "åł´": 802,
      "Ġst": 803,
      "ä½ķ": 804,
      "âĢ¢": 805,
      "Ġfor": 806,
      "è®ĵ": 807,
      "ç§ĳ": 808,
      "è·¯": 809,
      "ç¸½": 810,
      "æ°£": 811,
      "èªª": 812,
      "åı¥": 813,
      "å¦Ĥæŀľ": 814,
      "åĦ": 815,
      "äººå·¥": 816,
      "æĮģ": 817,
      "åıĹ": 818,
      "éĢĻäºĽ": 819,
      "éŁ¿": 820,
      "åĻ¨": 821,
      "--": 822,
      "ç³»": 823,
      "å®ī": 824,
      "è¦ĸ": 825,
      "æĵļ": 826,
      "Ġ4": 827,
      "if": 828,
      "æķĪ": 829,
      "é£Ł": 830,
      "æĥ³": 831,
      "æ¯ı": 832,
      "èĻķ": 833,
      "åĽŀ": 834,
      "å°ĳ": 835,
      "éħ": 836,
      "åŀĭ": 837,
      "åĪ¶": 838,
      "äººå·¥æĻºæħ§": 839,
      "äº¤": 840,
      "ul": 841,
      "æŃ¥": 842,
      "éĿŀ": 843,
      "åŃ¸ç¿Ĵ": 844,
      "æ±Ĥ": 845,
      "èĹ": 846,
      "ç¬¬": 847,
      "éģ©": 848,
      "å¢ĥ": 849,
      "ä½¿çĶ¨èĢħ": 850,
      "åĵ¡": 851,
      "è³ª": 852,
      "ç«ĭ": 853,
      "èº": 854,
      "èµ·": 855,
      "æĭ¬": 856,
      "çĭ": 857,
      "ç«ł": 858,
      "å¹«åĬ©": 859,
      "å¯«": 860,
      "åĪĹ": 861,
      "èĢĥ": 862,
      "çĦ¡": 863,
      "ly": 864,
      "ĠC": 865,
      "ec": 866,
      "çĶ±": 867,
      "èŃ°": 868,
      "ur": 869,
      "å°İ": 870,
      "ãĢĬ": 871,
      "os": 872,
      "ãĢĭ": 873,
      "çĽ®": 874,
      "ay": 875,
      "ä»ĸåĢĳ": 876,
      "æł¹": 877,
      "åŁº": 878,
      "å½±éŁ¿": 879,
      "ç½": 880,
      "èı": 881,
      "un": 882,
      "éłĺ": 883,
      "éĮ": 884,
      "æĸ¯": 885,
      "åħĥ": 886,
      "ç¥": 887,
      "æ±º": 888,
      "pt": 889,
      "è³ĩè¨Ĭ": 890,
      "å®¹": 891,
      "ç¤º": 892,
      "åŁŁ": 893,
      "è±": 894,
      "æ¬¡": 895,
      "åİŁ": 896,
      "æ¨Ļ": 897,
      "èº«": 898,
      "åĮħæĭ¬": 899,
      "te": 900,
      "å¾Ī": 901,
      "é¦ĸ": 902,
      "å¼·": 903,
      "ä¸įåĲĮ": 904,
      "èªį": 905,
      "Ġ5": 906,
      "Ġcon": 907,
      "éĨ«": 908,
      "ä»¶": 909,
      "è©ŀ": 910,
      "é¢": 911,
      "ä¸ī": 912,
      "qu": 913,
      "ir": 914,
      "åīµ": 915,
      "æĸĩç«ł": 916,
      "æ¶": 917,
      "Ġon": 918,
      "åĸ®": 919,
      "æł¼": 920,
      "è»Ĭ": 921,
      "å½¢": 922,
      "ers": 923,
      "åħ©": 924,
      "æķĻ": 925,
      "ç·ļ": 926,
      "çĻ¼å±ķ": 927,
      "å·±": 928,
      "æ¨£": 929,
      "å¥½çļĦ": 930,
      "æĻĤéĸĵ": 931,
      "é¢¨": 932,
      "20": 933,
      "èĩªå·±": 934,
      "Ġthat": 935,
      "Ġit": 936,
      "çŁ¥": 937,
      "é©": 938,
      "ĠæľĪ": 939,
      "åı¸": 940,
      "çµĦ": 941,
      "ç¯Ģ": 942,
      "åĤ³": 943,
      "ãĥ": 944,
      "å¡": 945,
      "æīĭ": 946,
      "çł": 947,
      "èŃĺ": 948,
      "åħĪ": 949,
      "å°±": 950,
      "æĮĩ": 951,
      "èĭ": 952,
      "è¿°": 953,
      "èĲ": 954,
      "th": 955,
      "ç±": 956,
      "æİ¥": 957,
      "ç¹": 958,
      "æĺ¯ä¸Ģ": 959,
      "ĠThe": 960,
      "ä¾ĭå¦Ĥ": 961,
      "ith": 962,
      "ç¾©": 963,
      "æºĲ": 964,
      "éŁ³": 965,
      "è©±": 966,
      "èŃ·": 967,
      "æł¹æĵļ": 968,
      "è¥": 969,
      "æľª": 970,
      "çĹ": 971,
      "éĩįè¦ģ": 972,
      "è§Ģ": 973,
      "ble": 974,
      "ç¶²": 975,
      "ra": 976,
      "çģ": 977,
      "çĩ": 978,
      "èª¿": 979,
      "è£¡": 980,
      "æ¨Ĥ": 981,
      "éģĶ": 982,
      "éĤ£": 983,
      "çĴ°å¢ĥ": 984,
      "ç¨ĭå¼ı": 985,
      "æµģ": 986,
      "æµ·": 987,
      "ĠĠĠĠĠĠĠĠ": 988,
      "å¢ŀ": 989,
      "åģ¥": 990,
      "ä¸ŃçļĦ": 991,
      "æ³¨": 992,
      "æ²Ĵ": 993,
      "è«ĸ": 994,
      "Ġ|": 995,
      "æĩīè©²": 996,
      "è¨Ģ": 997,
      "ä¸ĸ": 998,
      "Ġyou": 999,
      "ç®¡": 1000,
      "æ®µ": 1001,
      "æĶ¿": 1002,
      "æĶ¹": 1003,
      "åĲĳ": 1004,
      "åħĭ": 1005,
      "ĠâĢ¢": 1006,
      "å°Ī": 1007,
      "æ¼Ķ": 1008,
      "å¤ł": 1009,
      "ç°": 1010,
      "Ġv": 1011,
      "åĲĮæĻĤ": 1012,
      "éģĭ": 1013,
      "çĪ¾": 1014,
      "åħ±": 1015,
      "åŃĺ": 1016,
      "Ġare": 1017,
      "æĶ¾": 1018,
      "ĠP": 1019,
      "æºĸ": 1020,
      "æ¿": 1021,
      "æľį": 1022,
      "æķ´": 1023,
      "ç´ł": 1024,
      "è¥¿": 1025,
      "Ġnot": 1026,
      "åĽłæŃ¤": 1027,
      "æ»": 1028,
      "çľĭ": 1029,
      "æ¨¡": 1030,
      "ä»Ģ": 1031,
      "éį": 1032,
      "Ġpro": 1033,
      "ate": 1034,
      "ge": 1035,
      "Ġor": 1036,
      "æ¸Ľ": 1037,
      "éĺ": 1038,
      "æ¢": 1039,
      "åİ»": 1040,
      "Ġwith": 1041,
      "æĻ¯": 1042,
      "ions": 1043,
      "å·¥ä½ľ": 1044,
      "æĸĩåĮĸ": 1045,
      "åĢ¼": 1046,
      "å¼ķ": 1047,
      "åīĩ": 1048,
      "åħ¬åı¸": 1049,
      "æĵĩ": 1050,
      "èĬ": 1051,
      "çĻĤ": 1052,
      "ç¤¾æľĥ": 1053,
      "æĪ°": 1054,
      "çĨ": 1055,
      "od": 1056,
      "ç©º": 1057,
      "éģ¸æĵĩ": 1058,
      "ĠĠĠ": 1059,
      "å¦Ĥä½ķ": 1060,
      "éĩĳ": 1061,
      "æİ¨": 1062,
      "ç³»çµ±": 1063,
      "ç²": 1064,
      "æ¸¬": 1065,
      "éĢł": 1066,
      "ä»Ģéº¼": 1067,
      "Ġbe": 1068,
      "äººé¡ŀ": 1069,
      "æ°ĳ": 1070,
      "è¦ı": 1071,
      "æĸĩæľ¬": 1072,
      "åıį": 1073,
      "xt": 1074,
      "åĥ¹": 1075,
      "Ġ##": 1076,
      "æ·±": 1077,
      "æīĢä»¥": 1078,
      "çİĩ": 1079,
      "ple": 1080,
      "é©Ĺ": 1081,
      "æ§ĭ": 1082,
      "è¬": 1083,
      "æĸ·": 1084,
      "çĶŁæ´»": 1085,
      "æª": 1086,
      "éłĺåŁŁ": 1087,
      "ç¯ĩ": 1088,
      "ç°¡": 1089,
      "èĺ": 1090,
      "åĲ¦": 1091,
      "æŃ·": 1092,
      "åº·": 1093,
      "éģĬ": 1094,
      "æ²Ĵæľī": 1095,
      "çķĮ": 1096,
      "ist": 1097,
      "æĸ¹å¼ı": 1098,
      "ke": 1099,
      "åħ¶ä»ĸ": 1100,
      "åĿ": 1101,
      "æĺŁ": 1102,
      "ĠB": 1103,
      "æĢĿ": 1104,
      "èĩ³": 1105,
      "è£Ŀ": 1106,
      "å¸¶": 1107,
      "åħī": 1108,
      "AI": 1109,
      "éĿŀå¸¸": 1110,
      "è¨Īç®Ĺ": 1111,
      "çĸ": 1112,
      "åĲĦ": 1113,
      "Ġ6": 1114,
      "ad": 1115,
      "æģ": 1116,
      "ç¢ºä¿Ŀ": 1117,
      "est": 1118,
      "æıĲé«ĺ": 1119,
      "æħĭ": 1120,
      "åı£": 1121,
      "èĩ´": 1122,
      "çº": 1123,
      "æ¯Ķå¦Ĥ": 1124,
      "éĹľæĸ¼": 1125,
      "èĥ½å¤ł": 1126,
      "éłĲ": 1127,
      "çĽ´": 1128,
      "è©¦": 1129,
      "å·²": 1130,
      "æĪĸèĢħ": 1131,
      "av": 1132,
      "Ġ+": 1133,
      "ht": 1134,
      "æŀĲ": 1135,
      "æĶ¯": 1136,
      "å»£": 1137,
      "èĩº": 1138,
      "æ³ģ": 1139,
      "Ġas": 1140,
      "her": 1141,
      "ï¼Ľ": 1142,
      "Ġcan": 1143,
      "è¨Ńè¨Ī": 1144,
      "çŃĶæ¡Ī": 1145,
      "em": 1146,
      "åįĹ": 1147,
      "Ġwh": 1148,
      "èħ": 1149,
      "éģİç¨ĭ": 1150,
      "èĥ": 1151,
      "ç¶Ń": 1152,
      "åĽłçĤº": 1153,
      "åŁİ": 1154,
      "æ½": 1155,
      "èĸ": 1156,
      "è¾": 1157,
      "ãģ": 1158,
      "æĸ¹éĿ¢": 1159,
      "ãĥ»": 1160,
      "èĻķçĲĨ": 1161,
      "å®Į": 1162,
      "ĠæĹ¥": 1163,
      "æĺ¯ä¸ĢåĢĭ": 1164,
      "å§ĭ": 1165,
      "è§Ĵ": 1166,
      "æĸ¹æ³ķ": 1167,
      "çħ": 1168,
      "å¥³": 1169,
      "19": 1170,
      "åģ¥åº·": 1171,
      "è£½": 1172,
      "ç´°": 1173,
      "res": 1174,
      "æ¸ħ": 1175,
      "ç½®": 1176,
      "å¾·": 1177,
      "ç´Ħ": 1178,
      "å¤ª": 1179,
      "çļĦæķ": 1180,
      "åĢĭäºº": 1181,
      "åĬŁ": 1182,
      "èĭ±": 1183,
      "è½": 1184,
      "'s": 1185,
      "ä»¥åıĬ": 1186,
      "éļĽ": 1187,
      "å»ºèŃ°": 1188,
      "åģļ": 1189,
      "åĮĹ": 1190,
      "æ¥µ": 1191,
      "äºĮ": 1192,
      "ç©į": 1193,
      "çŃĸ": 1194,
      "èĩªçĦ¶": 1195,
      "åı¥åŃĲ": 1196,
      "å®ĥåĢĳ": 1197,
      "çłĶ": 1198,
      "ch": 1199,
      "è¨±": 1200,
      "åĪĨæŀĲ": 1201,
      "```": 1202,
      "ld": 1203,
      "åıĥ": 1204,
      "éĢŁ": 1205,
      "èĤ²": 1206,
      "Ġr": 1207,
      "ä¸Ńåľĭ": 1208,
      "éĢļå¸¸": 1209,
      "æļ": 1210,
      "éļĬ": 1211,
      "ä¸Ķ": 1212,
      "çĶŁæĪĲ": 1213,
      "pp": 1214,
      "éĬ": 1215,
      "èªŀè¨Ģ": 1216,
      "æľªä¾Ĩ": 1217,
      "ell": 1218,
      "ĠM": 1219,
      ".\"": 1220,
      "çľŁ": 1221,
      "ç¦": 1222,
      "æĺ¯åĲ¦": 1223,
      "æĩīçĶ¨": 1224,
      "int": 1225,
      "ĠE": 1226,
      "çºĮ": 1227,
      "è¨ĺ": 1228,
      "å®¢": 1229,
      "åħį": 1230,
      "Ġcom": 1231,
      "åı²": 1232,
      "ä¿ĿæĮģ": 1233,
      "ä¿ĿèŃ·": 1234,
      "ver": 1235,
      "ç¨±": 1236,
      "èĻŁ": 1237,
      "Ġal": 1238,
      "æŁ¥": 1239,
      "Ġex": 1240,
      "æĶ¶": 1241,
      "ĠH": 1242,
      "çīĩ": 1243,
      "å±±": 1244,
      "æŃ¡": 1245,
      "åĸľ": 1246,
      "Ġ###": 1247,
      "èģ¯": 1248,
      "ive": 1249,
      "åħ·é«Ķ": 1250,
      "çį²": 1251,
      "ri": 1252,
      "å¿«": 1253,
      "ĠF": 1254,
      "æ²»": 1255,
      "ç«Ļ": 1256,
      "å§": 1257,
      "åį³": 1258,
      "Ġk": 1259,
      "ight": 1260,
      "å®īåħ¨": 1261,
      "çĦ¶å¾Į": 1262,
      "åĹ": 1263,
      "åĶ": 1264,
      "10": 1265,
      "è½ī": 1266,
      "ç¢¼": 1267,
      "äºŀ": 1268,
      "ä¸»è¦ģ": 1269,
      "nt": 1270,
      "åķĨ": 1271,
      "Ġwe": 1272,
      "æī¾": 1273,
      "éŃ": 1274,
      "åĳĬ": 1275,
      "çĹħ": 1276,
      "äººåĢĳ": 1277,
      "and": 1278,
      "éļ¨": 1279,
      "æİĴ": 1280,
      "Ġus": 1281,
      "å¥¹": 1282,
      "ĠO": 1283,
      "è¿ĳ": 1284,
      "ity": 1285,
      "æĸ½": 1286,
      "è¼¸": 1287,
      "ç±³": 1288,
      "æĽ´åĬł": 1289,
      "ant": 1290,
      "ess": 1291,
      "æĭī": 1292,
      "ç¥ŀ": 1293,
      "éĽĨ": 1294,
      "æ¸Ľå°ĳ": 1295,
      "Ġne": 1296,
      "Ġat": 1297,
      "åħ§å®¹": 1298,
      "è¦ĭ": 1299,
      "æĴ": 1300,
      "çĲĨè§£": 1301,
      "æĿ±": 1302,
      "ä¿¡": 1303,
      "è¶³": 1304,
      "æħ®": 1305,
      "èĬ±": 1306,
      "çĥ": 1307,
      "çĭĢ": 1308,
      "è¶Ĭ": 1309,
      "åĳ³": 1310,
      "ç©¶": 1311,
      "è©ķ": 1312,
      "åıª": 1313,
      "ä»½": 1314,
      "Ġsp": 1315,
      "é¦¬": 1316,
      "æĦĽ": 1317,
      "éĻ¤": 1318,
      "éłħ": 1319,
      "Ġby": 1320,
      "ĠD": 1321,
      "se": 1322,
      "æĽ¸": 1323,
      "éļª": 1324,
      "Ġ20": 1325,
      "æĺĵ": 1326,
      "ĠW": 1327,
      "Ġ7": 1328,
      "text": 1329,
      "æıı": 1330,
      "åĥı": 1331,
      "è¼ĥ": 1332,
      "è§£æ±º": 1333,
      "æľįåĭĻ": 1334,
      "å¾ĭ": 1335,
      "åĽŀçŃĶ": 1336,
      "è»į": 1337,
      "éįµ": 1338,
      "rom": 1339,
      "æ¢Ŀ": 1340,
      "Ġch": 1341,
      "èģ·": 1342,
      "åĬĥ": 1343,
      "éħį": 1344,
      "æı´": 1345,
      "æ£": 1346,
      "çĨ±": 1347,
      "Ġhe": 1348,
      "Ġmo": 1349,
      "ure": 1350,
      "åł±": 1351,
      "åĳ½": 1352,
      "æľĽ": 1353,
      "çłĶç©¶": 1354,
      "Ġ8": 1355,
      "éĻ½": 1356,
      "è³½": 1357,
      "å°İèĩ´": 1358,
      "åĥħ": 1359,
      "Ġ19": 1360,
      "çµĤ": 1361,
      "æº«": 1362,
      "éĲ": 1363,
      "å¹¾": 1364,
      "Ġ```": 1365,
      "é¦ĸåħĪ": 1366,
      "åĲ«": 1367,
      "Ġ$$": 1368,
      "æ»¿": 1369,
      "ä¸ĸçķĮ": 1370,
      "ect": 1371,
      "åľĺ": 1372,
      "è¤": 1373,
      "åĦª": 1374,
      "æİ¡": 1375,
      "éģ¿": 1376,
      "èŃī": 1377,
      "éĽ»å½±": 1378,
      "Ġ)": 1379,
      "æĪĲçĤº": 1380,
      "æ©ŁåĻ¨": 1381,
      "éĩĭ": 1382,
      "æ´»åĭķ": 1383,
      "ä½İ": 1384,
      "ment": 1385,
      "å»ºç«ĭ": 1386,
      "ĠN": 1387,
      "èĥ½åĬĽ": 1388,
      "æĲ": 1389,
      "our": 1390,
      "ç®¡çĲĨ": 1391,
      "éĸĢ": 1392,
      "æİ§": 1393,
      "ter": 1394,
      "åįĩ": 1395,
      "Ġde": 1396,
      "pl": 1397,
      "è±¡": 1398,
      "çĻ½": 1399,
      "è®Ģ": 1400,
      "ä¹ĭéĸĵ": 1401,
      "éĻĲ": 1402,
      "èĩªå·±çļĦ": 1403,
      "éĨ«çĻĤ": 1404,
      "åı¯èĥ½æľĥ": 1405,
      "å¯¦çı¾": 1406,
      "æŃĮ": 1407,
      "ue": 1408,
      "ĠL": 1409,
      "çĴ°ä¿Ŀ": 1410,
      "çļĦæĺ¯": 1411,
      "éĢĻç¨®": 1412,
      "ould": 1413,
      "éĸĭå§ĭ": 1414,
      "æĽ´å¤ļ": 1415,
      "çļĦæĥ": 1416,
      "åĹİ": 1417,
      "è¼ķ": 1418,
      "ï¼ģ": 1419,
      "éĮ¯": 1420,
      "æĹı": 1421,
      "ãĢĮ": 1422,
      "og": 1423,
      "ãĢį": 1424,
      "èĢĥæħ®": 1425,
      "åħħ": 1426,
      "æª¢": 1427,
      "åŃĺåľ¨": 1428,
      "åĨį": 1429,
      "ain": 1430,
      "çľģ": 1431,
      "put": 1432,
      "è²»": 1433,
      "çĶ¨æĸ¼": 1434,
      "çĶ¢åĵģ": 1435,
      "å¨": 1436,
      "éĥ¨åĪĨ": 1437,
      "è¤ĩ": 1438,
      "åľĸ": 1439,
      "å°įæĸ¼": 1440,
      "ç²¾": 1441,
      "å¸«": 1442,
      "è¦º": 1443,
      "éĩĮ": 1444,
      "éģ¿åħį": 1445,
      "éĹľéįµ": 1446,
      "çį¨": 1447,
      "ptions": 1448,
      "çļĦåķıé¡Į": 1449,
      "åĤĻ": 1450,
      "ä½ľçĤº": 1451,
      "Ġ10": 1452,
      "Ġle": 1453,
      "Ġ*": 1454,
      "æŁĲ": 1455,
      "ort": 1456,
      "æŃ·åı²": 1457,
      "åĢĻ": 1458,
      "Ġ,": 1459,
      "çµ¦åĩº": 1460,
      "æııè¿°": 1461,
      "æĪ¶": 1462,
      "çļĦäºº": 1463,
      "éľĢæ±Ĥ": 1464,
      "éłŃ": 1465,
      "é§": 1466,
      "ide": 1467,
      "åĽĽ": 1468,
      "çŁŃ": 1469,
      "å±¬": 1470,
      "si": 1471,
      "æĹħ": 1472,
      "act": 1473,
      "åĵª": 1474,
      "ç¾ħ": 1475,
      "ç¾¤": 1476,
      "ĠR": 1477,
      "å¸Į": 1478,
      "çŀ": 1479,
      "yth": 1480,
      "ence": 1481,
      "ä¾¿": 1482,
      "ç¶²è·¯": 1483,
      "åıĭ": 1484,
      "åºľ": 1485,
      "æŀĹ": 1486,
      "è¶£": 1487,
      "å¤±": 1488,
      "çĳ": 1489,
      "èĨ": 1490,
      "çĩŁ": 1491,
      "èĹĿ": 1492,
      "ç·´": 1493,
      "èı¯": 1494,
      "Ġpos": 1495,
      "æİ¢": 1496,
      "è¡ĮçĤº": 1497,
      "èĦ": 1498,
      "çª": 1499,
      "è¨±å¤ļ": 1500,
      "yp": 1501,
      "Ġ`": 1502,
      "æķĻèĤ²": 1503,
      "ä¹ĭä¸Ģ": 1504,
      "oc": 1505,
      "ç¿»": 1506,
      "äº«": 1507,
      "èªįçĤº": 1508,
      "éģĭåĭķ": 1509,
      "å®ļçļĦ": 1510,
      "éĽ¢": 1511,
      "éŁ³æ¨Ĥ": 1512,
      "å°ĭ": 1513,
      "Ġen": 1514,
      "ç§ĳæĬĢ": 1515,
      "æ³¨æĦı": 1516,
      "èĲ½": 1517,
      "æŃ§": 1518,
      "çĽ¸éĹľ": 1519,
      "ud": 1520,
      "å·²ç¶ĵ": 1521,
      "æĶ¯æı´": 1522,
      "ical": 1523,
      "å£«": 1524,
      "æ¤": 1525,
      "å·´": 1526,
      "åįģ": 1527,
      "ython": 1528,
      "åĸľæŃ¡": 1529,
      "é¬": 1530,
      "æĪ²": 1531,
      "Ġsh": 1532,
      "æķħ": 1533,
      "ä¿Ĥ": 1534,
      "èŃ¯": 1535,
      "æ¬Ĭ": 1536,
      "åºı": 1537,
      "éĢĻæ¨£": 1538,
      "Ġ0": 1539,
      "ä½³": 1540,
      "Ġfrom": 1541,
      "åŁ·": 1542,
      "ph": 1543,
      "æīĢæľī": 1544,
      "å¼µ": 1545,
      "ill": 1546,
      "éĽ£": 1547,
      "ile": 1548,
      "ç´ħ": 1549,
      "è®ĬåĮĸ": 1550,
      "ä½łçļĦ": 1551,
      "èĮ": 1552,
      "èĪĪ": 1553,
      "ä¸Ģç¯ĩ": 1554,
      "æĺ¯ä¸Ģç¨®": 1555,
      "nd": 1556,
      "ĠTh": 1557,
      "å³": 1558,
      "é£²": 1559,
      "èŀ": 1560,
      "å¿ħ": 1561,
      "ä»Ĭ": 1562,
      "çİĭ": 1563,
      "åĺ": 1564,
      "ial": 1565,
      "Ġ9": 1566,
      "åľį": 1567,
      "æŃ§è¦ĸ": 1568,
      "éĤĬ": 1569,
      "æĥħæ³ģ": 1570,
      "age": 1571,
      "ç·¨": 1572,
      "Ġun": 1573,
      "åŁİå¸Ĥ": 1574,
      "ä¸Ģç¨®": 1575,
      "é¤Ĳ": 1576,
      "ies": 1577,
      "ass": 1578,
      "åĪ°äºĨ": 1579,
      "å±¤": 1580,
      "åŃ£": 1581,
      "éĹľä¿Ĥ": 1582,
      "åħ¶ä¸Ń": 1583,
      "æŃ¤å¤ĸ": 1584,
      "æ¶Ī": 1585,
      "ere": 1586,
      "çļĦæĥħ": 1587,
      "äºĴ": 1588,
      "èª¤": 1589,
      "åħ©åĢĭ": 1590,
      "umb": 1591,
      "å·ŀ": 1592,
      "æīį": 1593,
      "éĢ£": 1594,
      "çļĦæĦ": 1595,
      "ach": 1596,
      "ag": 1597,
      "é¦Ļ": 1598,
      "Ġ'": 1599,
      "ä½Ĩæĺ¯": 1600,
      "ine": 1601,
      "çŃĶæ¡Īæĺ¯": 1602,
      "æľĢå¾Į": 1603,
      "ä¸»é¡Į": 1604,
      "çħ§": 1605,
      "è¡¨ç¤º": 1606,
      "å¤ı": 1607,
      "ç´¢": 1608,
      "ï¼īï¼Į": 1609,
      "è©©": 1610,
      "å¯Ĩ": 1611,
      "Ġsu": 1612,
      "æĿĲ": 1613,
      "èį": 1614,
      "çŀŃ": 1615,
      "çµĲæŀľ": 1616,
      "ä»ĭ": 1617,
      "Ġqu": 1618,
      "éĽľ": 1619,
      "å¿µ": 1620,
      "ame": 1621,
      "æľĢçµĤ": 1622,
      "å£ĵ": 1623,
      "åĭ¢": 1624,
      "ise": 1625,
      "Ġ---": 1626,
      "å°¼": 1627,
      "æĻ®": 1628,
      "ä»¥ä¸ĭæĺ¯": 1629,
      "ä»»åĭĻ": 1630,
      "ä¿®": 1631,
      "åļ": 1632,
      "æīĵ": 1633,
      "ç§ĳåŃ¸": 1634,
      "ction": 1635,
      "ĠâĢľ": 1636,
      "åı¤": 1637,
      "art": 1638,
      "åľĴ": 1639,
      "Ġ#": 1640,
      "åı¦": 1641,
      "all": 1642,
      "äºĶ": 1643,
      "å¸¶ä¾Ĩ": 1644,
      "Ġme": 1645,
      "ç®Ĺæ³ķ": 1646,
      "åĲ¸": 1647,
      "éĻ¢": 1648,
      "âĢĶ": 1649,
      "ç´ļ": 1650,
      "çı¾åľ¨": 1651,
      "èıľ": 1652,
      "Ġpr": 1653,
      "Ġtr": 1654,
      "éĺ²": 1655,
      "ç¨ĭå¼ıç¢¼": 1656,
      "ult": 1657,
      "è³ĩæºĲ": 1658,
      "ich": 1659,
      "ï¼īãĢĤ": 1660,
      "æıĽ": 1661,
      "æĨ": 1662,
      "è¨ĵ": 1663,
      "ab": 1664,
      "oo": 1665,
      "æ¿Ł": 1666,
      "çĽ®æ¨Ļ": 1667,
      "ç¾İåľĭ": 1668,
      "è¡¨éģĶ": 1669,
      "ĠG": 1670,
      "éģĬæĪ²": 1671,
      "çį²å¾Ĺ": 1672,
      "æĽ´å¥½": 1673,
      "å¢ŀåĬł": 1674,
      "çµĲæ§ĭ": 1675,
      "åºŃ": 1676,
      "çķ«": 1677,
      "ç¿»èŃ¯": 1678,
      "Ġdo": 1679,
      "åħ¨çĲĥ": 1680,
      "çļĦæİ": 1681,
      "end": 1682,
      "æľĢä½³": 1683,
      "è²ł": 1684,
      "000": 1685,
      "ĠIn": 1686,
      "iz": 1687,
      "ä¸ĢæŃ¥": 1688,
      "æĪĳåĢĳçļĦ": 1689,
      "ä¸įæĺ¯": 1690,
      "åħ·æľī": 1691,
      "Ġthis": 1692,
      "æĸ°çļĦ": 1693,
      "du": 1694,
      "sible": 1695,
      "hes": 1696,
      "per": 1697,
      "è³¼": 1698,
      "çļĦå½±éŁ¿": 1699,
      "éĻį": 1700,
      "çĻ¼çı¾": 1701,
      "éĬ·": 1702,
      "ä¸Ģä¸ĭ": 1703,
      "èģ²": 1704,
      "ä¸įåĲĮçļĦ": 1705,
      "éĤ£éº¼": 1706,
      "è³ªéĩı": 1707,
      "èİ": 1708,
      "åĪĨé¡ŀ": 1709,
      "ãĤ": 1710,
      "çĭĹ": 1711,
      "èĽ": 1712,
      "king": 1713,
      "åĿĩ": 1714,
      "ĠĠĠĠĠ": 1715,
      "å¾Ģ": 1716,
      "ä»¤": 1717,
      "åĬŁèĥ½": 1718,
      "è¶ħ": 1719,
      "é¤Ĭ": 1720,
      "åŁ·è¡Į": 1721,
      "åį¡": 1722,
      "æŃ£ç¢º": 1723,
      "çķ°": 1724,
      "fr": 1725,
      "ime": 1726,
      "The": 1727,
      "ç¬¦": 1728,
      "çļĦæĩī": 1729,
      "æĽ²": 1730,
      "æķ¸åŃĹ": 1731,
      "éģł": 1732,
      "ave": 1733,
      "æıĲåıĸ": 1734,
      "cl": 1735,
      "é¡¯": 1736,
      "æ¬¾": 1737,
      "æŁĵ": 1738,
      "æ¨¡åŀĭ": 1739,
      "åĭķçī©": 1740,
      "12": 1741,
      "èĢģ": 1742,
      "Ġpl": 1743,
      "çģ«": 1744,
      "å·®": 1745,
      "Ġ/": 1746,
      "âĢĿï¼Į": 1747,
      "èģ½": 1748,
      "Ġim": 1749,
      "çĶ¢çĶŁ": 1750,
      "Ġj": 1751,
      "æ¼Ķç®Ĺæ³ķ": 1752,
      "å¯Į": 1753,
      "Ġpossible": 1754,
      "Ġwor": 1755,
      "ä¸įåĥħ": 1756,
      "ind": 1757,
      "ä¸įæĸ·": 1758,
      "æĶ¿åºľ": 1759,
      "å¸Ĥåł´": 1760,
      "éĺ¿": 1761,
      "ç¶ĵæ¿Ł": 1762,
      "çĪŃ": 1763,
      "ase": 1764,
      "rou": 1765,
      "çĽ£": 1766,
      "å¸ĮæľĽ": 1767,
      "çľ¾": 1768,
      "ç¹Ķ": 1769,
      "Ġli": 1770,
      "Ġman": 1771,
      "çĿ": 1772,
      "åĪ©çĶ¨": 1773,
      "çŀŃè§£": 1774,
      "Ġse": 1775,
      "åı¯ä»¥å¹«åĬ©": 1776,
      "æį": 1777,
      "èĺŃ": 1778,
      "è¨İ": 1779,
      "ä»»ä½ķ": 1780,
      "çīĮ": 1781,
      "éĮĦ": 1782,
      "çķ¥": 1783,
      "Ġåľ¨": 1784,
      "----": 1785,
      "éģ©åĲĪ": 1786,
      "çļĦæĩīçĶ¨": 1787,
      "low": 1788,
      "ans": 1789,
      "orm": 1790,
      "è¨ĪåĬĥ": 1791,
      "åľĭå®¶": 1792,
      "åĲĦç¨®": 1793,
      "æĳ": 1794,
      "æĥħæĦŁ": 1795,
      "åŃ¸çĶŁ": 1796,
      "çļĦæĸĩç«ł": 1797,
      "èº«é«Ķ": 1798,
      "æĬķ": 1799,
      "ä¼ģ": 1800,
      "æİ§åĪ¶": 1801,
      "æºĸç¢º": 1802,
      "çĵ": 1803,
      "åľ°åįĢ": 1804,
      "out": 1805,
      "Ġif": 1806,
      "åª": 1807,
      "ç¯Ħ": 1808,
      "èĩªåĭķ": 1809,
      "Ġtell": 1810,
      "è²¬": 1811,
      "ªæĸ½": 1812,
      "rem": 1813,
      "çĦ¡æ³ķ": 1814,
      "ĳæĪ°": 1815,
      "æĵĬ": 1816,
      "ä¸¦ä¸Ķ": 1817,
      "äººçļĦ": 1818,
      "é»ĳ": 1819,
      "å®¶åºŃ": 1820,
      "çĽĬ": 1821,
      "sw": 1822,
      "Ġwhe": 1823,
      "æĪ¿": 1824,
      "æĮģçºĮ": 1825,
      "**:": 1826,
      "åįĶ": 1827,
      "ire": 1828,
      "15": 1829,
      "èĲ¬": 1830,
      "å®³": 1831,
      "åĩ½": 1832,
      "åĬĩ": 1833,
      "çĶ·": 1834,
      "åľ°çĲĥ": 1835,
      "åĢ«": 1836,
      "åŃ©": 1837,
      "éºĹ": 1838,
      "èĪī": 1839,
      "æĢ§åĴĮ": 1840,
      "æĢĿèĢĥ": 1841,
      "è§£éĩĭ": 1842,
      "å±ħ": 1843,
      "èĤī": 1844,
      "Ġ12": 1845,
      "âĢĿãĢĤ": 1846,
      "}{": 1847,
      "ack": 1848,
      "one": 1849,
      "èĥĮ": 1850,
      "èŀį": 1851,
      "å¾ŀèĢĮ": 1852,
      "æ¯ıåĢĭ": 1853,
      "æ¹": 1854,
      "æ³Ľ": 1855,
      "æĩ": 1856,
      "å¤§çļĦ": 1857,
      "è¨´": 1858,
      "ust": 1859,
      "frac": 1860,
      "å¾µ": 1861,
      "èĶ": 1862,
      "æĽ´å¥½åľ°": 1863,
      "çĤºäºĨ": 1864,
      "çļĦä¸Ģ": 1865,
      "å®ĮæĪĲ": 1866,
      "ä¼¼": 1867,
      "åĩ½å¼ı": 1868,
      "åĪĩ": 1869,
      "Ġno": 1870,
      "é«Ķé©Ĺ": 1871,
      "æ©": 1872,
      "æ³¢": 1873,
      "èĹĿè¡ĵ": 1874,
      "åĥ¹åĢ¼": 1875,
      "èĹ¥": 1876,
      "ang": 1877,
      "æķĪçİĩ": 1878,
      "äº¬": 1879,
      "åıĹåĪ°": 1880,
      "ve": 1881,
      "ä½ľçĶ¨": 1882,
      "Ġma": 1883,
      "åĸĦ": 1884,
      "ä¼ģæ¥Ń": 1885,
      "ard": 1886,
      "é»ĥ": 1887,
      "æ½Ķ": 1888,
      "èĴ": 1889,
      "å¸ĥ": 1890,
      "è£Ŀç½®": 1891,
      "ç©įæ¥µ": 1892,
      "çļĦæĬ": 1893,
      "çµĦç¹Ķ": 1894,
      "è£½ä½ľ": 1895,
      "é¼": 1896,
      "åı¯ä»¥éĢļéģİ": 1897,
      "å·¥åħ·": 1898,
      "è¡¡": 1899,
      "åĽłç´ł": 1900,
      "å¾ħ": 1901,
      "èĽĭ": 1902,
      "éģĩ": 1903,
      "Ġres": 1904,
      "åĤ³çµ±": 1905,
      "ice": 1906,
      "ore": 1907,
      "Ġnumb": 1908,
      "éĸĭçĻ¼": 1909,
      "æ²³": 1910,
      "é¢¨éļª": 1911,
      "å¦": 1912,
      "è²·": 1913,
      "ç¸£": 1914,
      "çªģ": 1915,
      "åļ´": 1916,
      "ps": 1917,
      "çŁ³": 1918,
      "æĮī": 1919,
      "çµ¦æĪĳ": 1920,
      "èĸ¦": 1921,
      "ä¿ĥ": 1922,
      "æľīæķĪ": 1923,
      "å®¤": 1924,
      "å¾®": 1925,
      "éļ¨èĳĹ": 1926,
      "èŃĺåĪ¥": 1927,
      ":-": 1928,
      "äº¤éĢļ": 1929,
      "è¦ģæ±Ĥ": 1930,
      "åħĴ": 1931,
      "èĵ": 1932,
      "è¬Ŀ": 1933,
      "å»£æ³Ľ": 1934,
      "ĠU": 1935,
      "çļĦæ°": 1936,
      "æĸ¹æ¡Ī": 1937,
      "ç¦ı": 1938,
      "å¾ĹåĪ°": 1939,
      "å¯¦éļĽ": 1940,
      "ff": 1941,
      "å°Īæ¡Ī": 1942,
      "é©Ł": 1943,
      "ĠThis": 1944,
      "éĲµ": 1945,
      "å°±æĺ¯": 1946,
      "éİ": 1947,
      "Ġab": 1948,
      "æ²¹": 1949,
      "éĿĪ": 1950,
      "swer": 1951,
      "å¥ĩ": 1952,
      "ä¸ĬçļĦ": 1953,
      "æ¯į": 1954,
      "Options": 1955,
      "Ġbut": 1956,
      "æ´²": 1957,
      "èĩ¨": 1958,
      "åģĩ": 1959,
      "å¯«ä¸Ģç¯ĩ": 1960,
      "å¾Īå¤ļ": 1961,
      "æİ¡åıĸ": 1962,
      "çļĦçĻ¼å±ķ": 1963,
      "æŃ¥é©Ł": 1964,
      "ç¼": 1965,
      "åĪ¤": 1966,
      "remise": 1967,
      "ä¸Ģèµ·": 1968,
      "å¾©": 1969,
      "åŀĭåĪ¥": 1970,
      "éĢı": 1971,
      "æ¤į": 1972,
      "Ġhave": 1973,
      "Ġwhich": 1974,
      "è©¢": 1975,
      "çļĦæĹ": 1976,
      "åĪĿ": 1977,
      "æģ¯": 1978,
      "åħ¸": 1979,
      "åĶ®": 1980,
      "è¼¯": 1981,
      "é³": 1982,
      "åĬłåħ¥": 1983,
      "ance": 1984,
      "ä¸ĭéĿ¢": 1985,
      "çļĦæĶ": 1986,
      "ç´Ģ": 1987,
      "able": 1988,
      "æİªæĸ½": 1989,
      "æĬĬ": 1990,
      "é£Ľ": 1991,
      "åıĪ": 1992,
      "are": 1993,
      "å°Īæ¥Ń": 1994,
      "æİ¨èĸ¦": 1995,
      "Ġint": 1996,
      "çŁ¥èŃĺ": 1997,
      "ç¼º": 1998,
      "éĮ¯èª¤": 1999,
      "å®¢æĪ¶": 2000,
      "åĮħåĲ«": 2001,
      "èģŀ": 2002,
      "æĪĳåĢĳåı¯ä»¥": 2003,
      "çīĪ": 2004,
      "çĶ±æĸ¼": 2005,
      "è¤ĩéĽľ": 2006,
      "éĢ±": 2007,
      "æĿİ": 2008,
      "ãĢĤâĢ¢": 2009,
      "è¦ª": 2010,
      "éĥ½æĺ¯": 2011,
      "200": 2012,
      "50": 2013,
      "è²ĵ": 2014,
      "æŃ¢": 2015,
      "ç«¯": 2016,
      "ample": 2017,
      "cc": 2018,
      "åĩºçı¾": 2019,
      "ç´į": 2020,
      "ong": 2021,
      "ä¹Łæĺ¯": 2022,
      "åıĥèĪĩ": 2023,
      "å¤ªéĻ½": 2024,
      "Ġ\\(": 2025,
      "èī¯": 2026,
      "ater": 2027,
      "è¬Ľ": 2028,
      "åį°": 2029,
      "Ġneed": 2030,
      "18": 2031,
      "ç°¡åĸ®": 2032,
      "çĻ¼çĶŁ": 2033,
      "ĠJ": 2034,
      "Ġ[": 2035,
      "å¥³æĢ§": 2036,
      "å®ĺ": 2037,
      "åº«": 2038,
      "ks": 2039,
      "éı": 2040,
      "èįī": 2041,
      "æĤ¨çļĦ": 2042,
      "å¤«": 2043,
      "æĪĲåĬŁ": 2044,
      "ä¾Ŀ": 2045,
      "ĠÐ": 2046,
      "å°Ħ": 2047,
      "ä¹ĭéĸĵçļĦ": 2048,
      "åĺĹ": 2049,
      "é¤¨": 2050,
      "éļ±": 2051,
      "ç´¹": 2052,
      "ç§»": 2053,
      "åº§": 2054,
      "çķ¶çĦ¶": 2055,
      "æī¾åĪ°": 2056,
      "ç¬¬ä¸Ģ": 2057,
      "Ġper": 2058,
      "æķħäºĭ": 2059,
      "åľŁ": 2060,
      "__": 2061,
      "Ġthey": 2062,
      "æ¶ī": 2063,
      "éħĴ": 2064,
      "ome": 2065,
      "ap": 2066,
      "å¨ģ": 2067,
      "ä½ı": 2068,
      "åħĥç´ł": 2069,
      "ond": 2070,
      "éĹľæ³¨": 2071,
      "çİ©": 2072,
      "å¡Ĭ": 2073,
      "åĲĥ": 2074,
      "åĺĹè©¦": 2075,
      "æĵģ": 2076,
      ").": 2077,
      "op": 2078,
      "çļĦéĩįè¦ģ": 2079,
      "çįİ": 2080,
      "ific": 2081,
      "èª¿æķ´": 2082,
      "ä½įæĸ¼": 2083,
      "hesis": 2084,
      "åĳ¢": 2085,
      "ç¢ºå®ļ": 2086,
      "è¨ĵç·´": 2087,
      "åģı": 2088,
      "æĽ¾": 2089,
      "åĪ»": 2090,
      "å³¶": 2091,
      "ary": 2092,
      "ä»£è¡¨": 2093,
      "åīµéĢł": 2094,
      "Ġad": 2095,
      "ä½Ī": 2096,
      "å°Ĭ": 2097,
      "è©³": 2098,
      "ç¶ł": 2099,
      "Ġx": 2100,
      "ypot": 2101,
      "è§Ĵèī²": 2102,
      "è¼¸åħ¥": 2103,
      "ç¤¾äº¤": 2104,
      "å°įè©±": 2105,
      "ç§ģ": 2106,
      "çĶŁçĶ¢": 2107,
      "çĽ´æİ¥": 2108,
      "æ³ķå¾ĭ": 2109,
      "çı¾ä»£": 2110,
      "æĪĳçļĦ": 2111,
      "åĭµ": 2112,
      "æ©ŁåĻ¨åŃ¸ç¿Ĵ": 2113,
      "æĮĳæĪ°": 2114,
      "çĶŁçī©": 2115,
      "Ġcl": 2116,
      "æĵĶ": 2117,
      "ä¼°": 2118,
      "å¥§": 2119,
      "ress": 2120,
      "ä¾Ĩèªª": 2121,
      "è¡¨çı¾": 2122,
      "ie": 2123,
      "éĨ«çĶŁ": 2124,
      "è»Ł": 2125,
      "åĪĹè¡¨": 2126,
      "æľĭ": 2127,
      "Ġstr": 2128,
      "é£²é£Ł": 2129,
      "åºĹ": 2130,
      "Â·": 2131,
      "ç¬¬äºĮ": 2132,
      "ä½ľåĵģ": 2133,
      "der": 2134,
      "æĻļ": 2135,
      "lect": 2136,
      "æĴŃ": 2137,
      "ä»ĭç´¹": 2138,
      "éŃļ": 2139,
      "çł´": 2140,
      "æĺ¯åľ¨": 2141,
      "èħ¦": 2142,
      "ypothesis": 2143,
      "é¾": 2144,
      "æĪĳéľĢè¦ģ": 2145,
      "ĻæŁĵ": 2146,
      "èĥ½æºĲ": 2147,
      "éłĲæ¸¬": 2148,
      "å·§": 2149,
      "ace": 2150,
      "Ġlike": 2151,
      "æł¸": 2152,
      "Ġco": 2153,
      "æ¿Ģ": 2154,
      "åŁºæĸ¼": 2155,
      "çĸ¾": 2156,
      "ub": 2157,
      "imes": 2158,
      "éĸ±": 2159,
      "çļĦæĢ": 2160,
      "ä»ĸçļĦ": 2161,
      "çŃīçŃī": 2162,
      "äºĭä»¶": 2163,
      "çŁ¥éģĵ": 2164,
      "è¾¦": 2165,
      "ä¿ĥéĢ²": 2166,
      "å¤©æ°£": 2167,
      "å±Ģ": 2168,
      "ä»ĸåĢĳçļĦ": 2169,
      "',": 2170,
      "åĲĪä½ľ": 2171,
      "æĦıèŃĺ": 2172,
      "åľĺéļĬ": 2173,
      "row": 2174,
      "åªĴ": 2175,
      "ther": 2176,
      "è¡Įæ¥Ń": 2177,
      "()": 2178,
      "æĵ¬": 2179,
      "æ¦Ĥ": 2180,
      "èģ·æ¥Ń": 2181,
      "æł¡": 2182,
      "æľĭåıĭ": 2183,
      "ations": 2184,
      "æª¢æŁ¥": 2185,
      "éĦ": 2186,
      "éĽĸ": 2187,
      "Ġimp": 2188,
      "äºĨä¸Ģ": 2189,
      "é½": 2190,
      "form": 2191,
      "å®£": 2192,
      "Ġar": 2193,
      "Ġso": 2194,
      "æ¨¹": 2195,
      "éĲĺ": 2196,
      "ens": 2197,
      "Ġout": 2198,
      "è¿½": 2199,
      "æľĢä½³åĮĸ": 2200,
      "æĽ´å¤ļçļĦ": 2201,
      "èµ°": 2202,
      "æĹ©": 2203,
      "ĠçļĦ": 2204,
      "åĦ²": 2205,
      "å©": 2206,
      "ç¯ī": 2207,
      "æ¾": 2208,
      "30": 2209,
      "æ²»çĻĤ": 2210,
      "ount": 2211,
      "Ġkm": 2212,
      "çĬ": 2213,
      "è¡Įåĭķ": 2214,
      "èĳī": 2215,
      "åīµæĸ°": 2216,
      "è¨º": 2217,
      "ç¬¦åĲĪ": 2218,
      "fere": 2219,
      "urn": 2220,
      "æ´ĭ": 2221,
      "wo": 2222,
      "è©³ç´°": 2223,
      "),": 2224,
      "éĩįè¦ģçļĦ": 2225,
      "up": 2226,
      "çķĻ": 2227,
      "å¯¶": 2228,
      "Ġmore": 2229,
      "é®": 2230,
      "éºµ": 2231,
      "Ð¾": 2232,
      "æĦŁåĪ°": 2233,
      "ç³ĸ": 2234,
      "èĥĮæĻ¯": 2235,
      "ated": 2236,
      "æĵį": 2237,
      "âĤ": 2238,
      "Ġapp": 2239,
      "æ²Ļ": 2240,
      "åħ±åĲĮ": 2241,
      "éĢĻæĺ¯": 2242,
      "éĢĻç¯ĩ": 2243,
      "clud": 2244,
      "åĦĺ": 2245,
      "åķŁ": 2246,
      "ip": 2247,
      "ä»į": 2248,
      "è¨Ńå®ļ": 2249,
      "éĢĲ": 2250,
      "Ġsec": 2251,
      "Ġeach": 2252,
      "é£Łçī©": 2253,
      "ual": 2254,
      "è¸": 2255,
      "å»ºç¯ī": 2256,
      "è±Ĳ": 2257,
      "åĨ°": 2258,
      "Ġhas": 2259,
      "è²¡": 2260,
      "åĳ¨": 2261,
      "å¤§éĩı": 2262,
      "çģ£": 2263,
      "åİŁåĽł": 2264,
      "åŃ©åŃĲ": 2265,
      "çļĦæ¨": 2266,
      "æľĢè¿ĳ": 2267,
      "åĳ¼": 2268,
      "è¾²": 2269,
      "é¡ı": 2270,
      "ç©©": 2271,
      "åĬª": 2272,
      "ast": 2273,
      "çļĦåľ°": 2274,
      "éĿľ": 2275,
      "åĳĬè¨´": 2276,
      "iven": 2277,
      "é¬Ĩ": 2278,
      "Ġtime": 2279,
      "æ±ĻæŁĵ": 2280,
      "å½¢æĪĲ": 2281,
      "æĶ¹è®Ĭ": 2282,
      "éĽĸçĦ¶": 2283,
      "Ġ{": 2284,
      "ign": 2285,
      "æ¶īåıĬ": 2286,
      "å»³": 2287,
      "çĶŁæħĭ": 2288,
      "ä¸įèĥ½": 2289,
      "èµ·ä¾Ĩ": 2290,
      "Ġcomp": 2291,
      "éļİ": 2292,
      "ä¸Ńå¿ĥ": 2293,
      "Ġâ": 2294,
      "æķ£": 2295,
      "Ġdoes": 2296,
      "åªĴé«Ķ": 2297,
      "å¹³è¡¡": 2298,
      "éłĨ": 2299,
      "Ġyour": 2300,
      "çī¹å®ļ": 2301,
      "æīįèĥ½": 2302,
      "èĵĭ": 2303,
      "ep": 2304,
      "16": 2305,
      "å¿ĥçĲĨ": 2306,
      "ĠSo": 2307,
      "ä¹ĭåīį": 2308,
      "åĽ°": 2309,
      "éİ®": 2310,
      "ï¼ļâĢľ": 2311,
      "éĤĦæľī": 2312,
      "èĩªæĪĳ": 2313,
      "é¡į": 2314,
      "åĲįç¨±": 2315,
      "ç¸½çµĲ": 2316,
      "çĸ¾çĹħ": 2317,
      "æĿĲæĸĻ": 2318,
      "è¡Ģ": 2319,
      "Ġanswer": 2320,
      "åĤ·": 2321,
      "æŃ£åľ¨": 2322,
      "èŃ¦": 2323,
      "çī¹åĪ¥": 2324,
      "éĿĴ": 2325,
      "éĢĻè£¡": 2326,
      "Ġta": 2327,
      "è¨Īç®Ĺæ©Ł": 2328,
      "è¡Ľ": 2329,
      "ition": 2330,
      "202": 2331,
      "ite": 2332,
      "ä½łåı¯ä»¥": 2333,
      "çļĦæķ¸": 2334,
      "çļĦè³ĩè¨Ĭ": 2335,
      "å¯Ł": 2336,
      "æľīéĹľ": 2337,
      "åŁºæľ¬": 2338,
      "çĶŁåĳ½": 2339,
      "Ġcont": 2340,
      "å¿«éĢŁ": 2341,
      "äººå·¥æĻºæħ§æĬĢè¡ĵ": 2342,
      "æĸ°èģŀ": 2343,
      "æİ¢ç´¢": 2344,
      "Ġyes": 2345,
      "æĵģæľī": 2346,
      "çīĽ": 2347,
      "éłĪ": 2348,
      "Ġfun": 2349,
      "åĥ¹æł¼": 2350,
      "å¹¾åĢĭ": 2351,
      "ä¹ĺ": 2352,
      "èĪĪè¶£": 2353,
      "éĢŁåº¦": 2354,
      "åįĬ": 2355,
      "å¤ľ": 2356,
      "æŁĲäºĽ": 2357,
      "ç¸½ä¹ĭ": 2358,
      "åĵ¡å·¥": 2359,
      "å¼·èª¿": 2360,
      "æ¸¯": 2361,
      "éĽ»åŃĲ": 2362,
      "éĽĻ": 2363,
      "æļĸ": 2364,
      "Ġnumber": 2365,
      "æıĲåįĩ": 2366,
      "Ġwould": 2367,
      "æĨ¶": 2368,
      "å£ĵåĬĽ": 2369,
      "è¼¸åĩº": 2370,
      "çĦ¶èĢĮ": 2371,
      "åĵģçīĮ": 2372,
      "åĪ¶å®ļ": 2373,
      "Ġprint": 2374,
      "Ġhow": 2375,
      "èªªæĺİ": 2376,
      "èĸ©": 2377,
      "åł´æĻ¯": 2378,
      "ç¹¼": 2379,
      "æī¿": 2380,
      "åı¥è©±": 2381,
      "ä½įç½®": 2382,
      "erm": 2383,
      "é®®": 2384,
      "åĬªåĬĽ": 2385,
      "å¦Ĥæŀľä½ł": 2386,
      "entence": 2387,
      "ä¸Ńæĸĩ": 2388,
      "æ©Łæľĥ": 2389,
      "Ġ11": 2390,
      "çļ®": 2391,
      "åı¯èĥ½éľĢè¦ģ": 2392,
      "å°ıèªª": 2393,
      "äºĴåĭķ": 2394,
      "å¸¸è¦ĭ": 2395,
      "ely": 2396,
      "æĪĳåĢĳéľĢè¦ģ": 2397,
      "ption": 2398,
      "çĭĢæħĭ": 2399,
      "çļĦæĬĢ": 2400,
      "):": 2401,
      "æĢ§çļĦ": 2402,
      "ç¤İ": 2403,
      "æ¯Ķè¼ĥ": 2404,
      "åŁºç¤İ": 2405,
      "è·Ŀ": 2406,
      "çŃĸçķ¥": 2407,
      "çĥ¤": 2408,
      "ĠY": 2409,
      "ces": 2410,
      "æªĶ": 2411,
      "å½±åĥı": 2412,
      "æŀ¶": 2413,
      "cri": 2414,
      "å¹³çŃī": 2415,
      "ï¼ļ**": 2416,
      "éĽ²": 2417,
      "Ġhour": 2418,
      "æĺ¯ä»Ģéº¼": 2419,
      "å¹³èĩº": 2420,
      "åīµä½ľ": 2421,
      "æĪĳæĥ³": 2422,
      "æľ¨": 2423,
      "é£¾": 2424,
      "Ġone": 2425,
      "ft": 2426,
      "Ðµ": 2427,
      "ons": 2428,
      "å§Ķ": 2429,
      "å½©": 2430,
      "ç·Ĵ": 2431,
      "çī¹å¾µ": 2432,
      "ry": 2433,
      "åŁ¹": 2434,
      "é¡ıèī²": 2435,
      "çļĦæ©Ł": 2436,
      "ates": 2437,
      "æĶ¿çŃĸ": 2438,
      "åľĭéļĽ": 2439,
      "now": 2440,
      "ox": 2441,
      "é¢¨æł¼": 2442,
      "åıĥåĬł": 2443,
      "éĢłæĪĲ": 2444,
      "çļĦæī": 2445,
      "ous": 2446,
      "ç¥¨": 2447,
      "åºķ": 2448,
      "çķ¶åľ°": 2449,
      "å¤§åŃ¸": 2450,
      "å°ıæĻĤ": 2451,
      "é¼ĵ": 2452,
      "æŃ¸": 2453,
      "éĤĦæĺ¯": 2454,
      "åĬ©æĸ¼": 2455,
      "ä¸īåĢĭ": 2456,
      "Ġspec": 2457,
      "ä¸ĭä¾Ĩ": 2458,
      "Ġ15": 2459,
      "éĽŀ": 2460,
      "Ġits": 2461,
      "æĪĲæľ¬": 2462,
      "è¿´": 2463,
      "æĺ¥": 2464,
      "å½¢å¼ı": 2465,
      "'t": 2466,
      "ear": 2467,
      "so": 2468,
      "é§Ľ": 2469,
      "æĿ¿": 2470,
      "åłħ": 2471,
      "é¹": 2472,
      "æ¨Ļæºĸ": 2473,
      "éĽ¨": 2474,
      "aus": 2475,
      "gh": 2476,
      "ä»Ĭå¤©": 2477,
      "å¿ħéłĪ": 2478,
      "Ġro": 2479,
      "è©ķä¼°": 2480,
      "æ°§": 2481,
      "å®ļç¾©": 2482,
      "100": 2483,
      "åĪĨéĲĺ": 2484,
      "è¨ºæĸ·": 2485,
      "ç£": 2486,
      "æ°£åĢĻ": 2487,
      "èĺĩ": 2488,
      "éļ»": 2489,
      "æĺİç¢º": 2490,
      "ata": 2491,
      "å¾ĳ": 2492,
      "åĵªäºĽ": 2493,
      "æľĿ": 2494,
      "é¾į": 2495,
      "cul": 2496,
      "çļĦæº": 2497,
      "Ġgo": 2498,
      "éģİç¨ĭä¸Ń": 2499,
      "æ¯Ķè³½": 2500,
      "æĤ£": 2501,
      "éĩİ": 2502,
      "Ġ<": 2503,
      "æıĲåĪ°": 2504,
      "æľīåĬ©æĸ¼": 2505,
      "str": 2506,
      "ãĢĤâĢĿ": 2507,
      "Ġret": 2508,
      "éĸ±è®Ģ": 2509,
      "éĬĢ": 2510,
      "æºĸåĤĻ": 2511,
      "æ·±åº¦": 2512,
      "æ¢Ŀä»¶": 2513,
      "ç·Ĭ": 2514,
      "Ġform": 2515,
      "ç¨®æĹı": 2516,
      "çĶŁæĪĲä¸ĢåĢĭ": 2517,
      "æ±½": 2518,
      "Ġ18": 2519,
      "ĠV": 2520,
      "æŃ»": 2521,
      "è¨İè«ĸ": 2522,
      "éļľ": 2523,
      "äº¤æµģ": 2524,
      "11": 2525,
      "èĩªçĶ±": 2526,
      "æĵįä½ľ": 2527,
      "Ġtra": 2528,
      "ree": 2529,
      "åĬłå¼·": 2530,
      "çıŃ": 2531,
      "éĻĲåĪ¶": 2532,
      "æ¤įçī©": 2533,
      "ä¸įéģİ": 2534,
      "ays": 2535,
      "ä¸įæľĥ": 2536,
      "åıįæĩī": 2537,
      "ook": 2538,
      "Ġabout": 2539,
      "å¤ļåĢĭ": 2540,
      "çĻ¾": 2541,
      "çį¨çī¹": 2542,
      "ne": 2543,
      "åĴĸ": 2544,
      "éĢĻç¯ĩæĸĩç«ł": 2545,
      "å¢ŀå¼·": 2546,
      "çĹĩ": 2547,
      "æŃĲ": 2548,
      "æĢ§åĪ¥": 2549,
      "æ¼¸": 2550,
      "é¡ĮçĽ®": 2551,
      "éĽ»è¦ĸ": 2552,
      "ange": 2553,
      "çļĦæİ¨": 2554,
      "çļĦæĦı": 2555,
      "ç«¶": 2556,
      "ç¦®": 2557,
      "éħ¸": 2558,
      "ä¸Ģæ®µ": 2559,
      "æĹħè¡Į": 2560,
      "æĻĤåĢĻ": 2561,
      "ç©¿": 2562,
      "Ġwas": 2563,
      "Python": 2564,
      "ĠK": 2565,
      "Ġtheir": 2566,
      "åģľ": 2567,
      "åĵĪ": 2568,
      "Ġquest": 2569,
      "ä¹Łåı¯ä»¥": 2570,
      "Ġprov": 2571,
      "åįĥ": 2572,
      "çµ¡": 2573,
      "inal": 2574,
      "åı¦å¤ĸ": 2575,
      "è³¼è²·": 2576,
      "åģļåĩº": 2577,
      "çļĦæĮ": 2578,
      "è§Ģé»ŀ": 2579,
      "Ġdef": 2580,
      "è®Ĭå¾Ĺ": 2581,
      "ç¯Ħåľį": 2582,
      "ents": 2583,
      "be": 2584,
      "äºĨä¸ĢåĢĭ": 2585,
      "è¹": 2586,
      "ys": 2587,
      "é»¨": 2588,
      "æĹħéģĬ": 2589,
      "æŃ²": 2590,
      "äººæ°ĳ": 2591,
      "èĹį": 2592,
      "çī©è³ª": 2593,
      "æĶĿ": 2594,
      "Ġ200": 2595,
      "å°ĭæī¾": 2596,
      "æĢİ": 2597,
      "25": 2598,
      "æ¯ıåĢĭäºº": 2599,
      "åķ¡": 2600,
      "éĬ·åĶ®": 2601,
      "ä¾Ĩè¶Ĭ": 2602,
      "ĠPro": 2603,
      "å¤ļå°ĳ": 2604,
      "Ġwill": 2605,
      "è¶Ĭä¾Ĩè¶Ĭ": 2606,
      "Ġfol": 2607,
      "times": 2608,
      "å¦ĤæŀľæĤ¨": 2609,
      "ä½¿çĶ¨èĢħåı¯èĥ½": 2610,
      "æĽ¿": 2611,
      "èĭ±æĸĩ": 2612,
      "å°Ĭéĩį": 2613,
      "ative": 2614,
      "çµķ": 2615,
      "éĢģ": 2616,
      "we": 2617,
      "ä»ĺ": 2618,
      "åįļ": 2619,
      "åĸ®è©ŀ": 2620,
      "èĪŀ": 2621,
      "ib": 2622,
      "å®Ī": 2623,
      "æµª": 2624,
      "ç©ºéĸĵ": 2625,
      "ç¶ĵé©Ĺ": 2626,
      "æ±ºçŃĸ": 2627,
      "å®Ĺ": 2628,
      "åĲ§": 2629,
      "Ð°": 2630,
      "è¨ĺéĮĦ": 2631,
      "é«ĺæķĪ": 2632,
      "èģ¯çµ¡": 2633,
      "æĸ¹åĲĳ": 2634,
      "éĻ³": 2635,
      "çļĦæĥħæ³ģ": 2636,
      "å®¹æĺĵ": 2637,
      "ll": 2638,
      "åĮĸçļĦ": 2639,
      "çį»": 2640,
      "ç²ī": 2641,
      "erg": 2642,
      "è±Ĳå¯Į": 2643,
      "éļ±ç§ģ": 2644,
      "Ġsy": 2645,
      "é¡ĺ": 2646,
      "æľīè¶£": 2647,
      "æ¸¬è©¦": 2648,
      "å¥¶": 2649,
      "è¦ıåīĩ": 2650,
      "éģ©æĩī": 2651,
      "ode": 2652,
      "çľ¼": 2653,
      "eth": 2654,
      "éľ²": 2655,
      "å¡ĳ": 2656,
      "Ġent": 2657,
      "é¡§": 2658,
      "ä½¿å¾Ĺ": 2659,
      "14": 2660,
      "çļĦæĢĿ": 2661,
      "è¡Ĺ": 2662,
      "èĪª": 2663,
      "é³¥": 2664,
      "åĦ²åŃĺ": 2665,
      "Ġother": 2666,
      "åĴĸåķ¡": 2667,
      "Ġbl": 2668,
      "æ±Ł": 2669,
      "éģ¸éłħ": 2670,
      "ä¸Ģæ¬¡": 2671,
      "è¨ª": 2672,
      "éĢĻåĢĭåķıé¡Į": 2673,
      "æĶ»": 2674,
      "æľĢçµĤçļĦ": 2675,
      "æİ¡çĶ¨": 2676,
      "åħŃ": 2677,
      "èĻĽ": 2678,
      "Ġdif": 2679,
      "å¡Ķ": 2680,
      "ÑĤ": 2681,
      "éĩĳèŀį": 2682,
      "les": 2683,
      "ors": 2684,
      "ä»¥ä¸Ĭ": 2685,
      "ç§ĭ": 2686,
      "èĩºçģ£": 2687,
      "ç©©å®ļ": 2688,
      "Ġdet": 2689,
      "éĻįä½İ": 2690,
      "ject": 2691,
      "ç§ĺ": 2692,
      "æĹ¥æľ¬": 2693,
      "ound": 2694,
      "ĺè¦ģ": 2695,
      "ord": 2696,
      "éĿ¢ç©į": 2697,
      "å¯«ä¸Ģç¯ĩéĹľæĸ¼": 2698,
      "è¼ī": 2699,
      "Ġall": 2700,
      "éĢĻæ®µ": 2701,
      "çļĦè³ĩæĸĻ": 2702,
      "å¤¢": 2703,
      "æĬĢèĥ½": 2704,
      "ail": 2705,
      "åı«": 2706,
      "è¶¨": 2707,
      "ä¾ĭåŃĲ": 2708,
      "å±¬æĸ¼": 2709,
      "å´": 2710,
      "äººåĵ¡": 2711,
      "æĤ¨åı¯ä»¥": 2712,
      "çļĦæ¯": 2713,
      "äº®": 2714,
      "Ġwhen": 2715,
      "éĭ": 2716,
      "çĸ«": 2717,
      "éĽ·": 2718,
      "éģº": 2719,
      "ath": 2720,
      "éĻ£": 2721,
      "æ£®": 2722,
      "çµĦæĪĲ": 2723,
      "Ġval": 2724,
      "èľ": 2725,
      "è²¬ä»»": 2726,
      "æ»¿è¶³": 2727,
      "hn": 2728,
      "æĺ¯æĮĩ": 2729,
      "éĢĻä¸Ģ": 2730,
      "æ¨¡å¼ı": 2731,
      "åŀĥ": 2732,
      "æ··": 2733,
      "åĲ¸å¼ķ": 2734,
      "ory": 2735,
      "åľ¾": 2736,
      "åŀĥåľ¾": 2737,
      "é¨": 2738,
      "éģĵå¾·": 2739,
      "éĥ½æľī": 2740,
      "Ġfollow": 2741,
      "é¼ĵåĭµ": 2742,
      "Ġph": 2743,
      "blem": 2744,
      "å®ĥçļĦ": 2745,
      "çĤºæĤ¨": 2746,
      "ç¶ľ": 2747,
      "ĠEx": 2748,
      "æĬķè³ĩ": 2749,
      "ä¼Ĭ": 2750,
      "å®ĩ": 2751,
      "orre": 2752,
      "è»Łé«Ķ": 2753,
      "ak": 2754,
      "æªĶæ¡Ī": 2755,
      "Ġreturn": 2756,
      "éĻ¸": 2757,
      "é§ķ": 2758,
      "Ġinto": 2759,
      "ç¤¾ç¾¤": 2760,
      "ç¶²ç«Ļ": 2761,
      "èģļ": 2762,
      "Ġpre": 2763,
      "ç°¡æ½Ķ": 2764,
      "å¤ļç¨®": 2765,
      "Ġ.": 2766,
      "æ½Ľ": 2767,
      "æ¯Ĵ": 2768,
      "ä¸Ģä»½": 2769,
      "æ¼¢": 2770,
      "Ġsol": 2771,
      "ä¸»ç¾©": 2772,
      "èªįçľŁ": 2773,
      "å¦Ĥä¸ĭ": 2774,
      "æŃ¦": 2775,
      "ĿéĢļ": 2776,
      "å²": 2777,
      "æ©ŁåĻ¨äºº": 2778,
      "ä¸ŃæıĲåıĸ": 2779,
      "å·®çķ°": 2780,
      "éĩĿ": 2781,
      "eed": 2782,
      "çļĦæĸ¹æ³ķ": 2783,
      "åĢ«çĲĨ": 2784,
      "Ġtwo": 2785,
      "çµ¦å®ļ": 2786,
      "Ġhours": 2787,
      "åľĪ": 2788,
      "åı¯æĮģçºĮ": 2789,
      "ç©ºæ°£": 2790,
      "ç¨ĭå¼ıè¨Ńè¨Ī": 2791,
      "60": 2792,
      "åĨ·": 2793,
      "å·¨": 2794,
      "èĪĴ": 2795,
      "Ġdis": 2796,
      "Ġinc": 2797,
      "Ġsc": 2798,
      "çļĦæµ": 2799,
      "èĢħçļĦ": 2800,
      "åĮĹäº¬": 2801,
      "åħħæ»¿": 2802,
      "è¿İ": 2803,
      "èĩªçĦ¶èªŀè¨Ģ": 2804,
      "ia": 2805,
      "å¹³åĿĩ": 2806,
      "çµĲåĲĪ": 2807,
      "irst": 2808,
      "çĤºä»Ģéº¼": 2809,
      "æľĢçµĤçļĦçŃĶæ¡Īæĺ¯": 2810,
      "hat": 2811,
      "Ġequ": 2812,
      "å¡ŀ": 2813,
      "è¦Ĩ": 2814,
      "èª²": 2815,
      "çī¹é»ŀ": 2816,
      "æĪĲåĵ¡": 2817,
      "ating": 2818,
      "Ġhis": 2819,
      "æħ¢": 2820,
      "æħ£": 2821,
      "æ±ºå®ļ": 2822,
      "\\)": 2823,
      "python": 2824,
      "Ġhel": 2825,
      "Ġacc": 2826,
      "ç¶ĵæŃ·": 2827,
      "åľĵ": 2828,
      "åĭĿ": 2829,
      "ased": 2830,
      "è¡£": 2831,
      "çµ¦å®ļçļĦ": 2832,
      "æ¦": 2833,
      "æĥ³è¦ģ": 2834,
      "åĳĬè¨´æĪĳ": 2835,
      "è¶¨åĭ¢": 2836,
      "å£ŀ": 2837,
      "ĠIf": 2838,
      "æıĲåĩº": 2839,
      "Ġover": 2840,
      "eng": 2841,
      "Ġdes": 2842,
      "æĿĳ": 2843,
      "çīĻ": 2844,
      "æ±½è»Ĭ": 2845,
      "eo": 2846,
      "clude": 2847,
      "å¯©": 2848,
      "æķ´åĢĭ": 2849,
      "ç·©": 2850,
      "orrect": 2851,
      "its": 2852,
      "vel": 2853,
      "èĨł": 2854,
      "ä¹¾": 2855,
      "åħ¬åľĴ": 2856,
      "æĬĹ": 2857,
      "çĻ»": 2858,
      "åħ·é«ĶçļĦ": 2859,
      "Ġpart": 2860,
      "çĮ": 2861,
      "åĪĨäº«": 2862,
      "æĪĳåı¯ä»¥": 2863,
      "çľĭåĪ°": 2864,
      "\",": 2865,
      "Ġquestion": 2866,
      "ng": 2867,
      "17": 2868,
      "ÃĹ": 2869,
      "13": 2870,
      "Ġte": 2871,
      "åĲįåŃĹ": 2872,
      "åıªæľī": 2873,
      "å¤ļæ¨£": 2874,
      "å·¥ç¨ĭ": 2875,
      "ick": 2876,
      "åı³": 2877,
      "å¤ıå¤©": 2878,
      "éıĪ": 2879,
      "æ©Łæ§ĭ": 2880,
      "å·¦": 2881,
      "åħ¬éĩĮ": 2882,
      "Ġknow": 2883,
      "çļĦè©±": 2884,
      "é¤ĺ": 2885,
      "ç³»åĪĹ": 2886,
      "Ġbet": 2887,
      "åį±": 2888,
      "æİ¥ä¸ĭä¾Ĩ": 2889,
      "éĿ©": 2890,
      "Ġpo": 2891,
      "åįĢåŁŁ": 2892,
      "èĪ¬": 2893,
      "çļĦä¸»è¦ģ": 2894,
      "Ġexp": 2895,
      "æ´¾": 2896,
      "æĶ¹åĸĦ": 2897,
      "è¡Ŀ": 2898,
      "Ġwater": 2899,
      "éĿł": 2900,
      "æĸĩåŃ¸": 2901,
      "æ¨ĵ": 2902,
      "æİ¨åĭķ": 2903,
      "éłĵ": 2904,
      "ict": 2905,
      "æ°´å¹³": 2906,
      "Ð¸": 2907,
      "Ġbec": 2908,
      "Ġup": 2909,
      "éĥµ": 2910,
      "åĭŀ": 2911,
      ":**": 2912,
      "ä½µ": 2913,
      "æĲį": 2914,
      "èĤ¡": 2915,
      "ä¸²": 2916,
      "é£Łåĵģ": 2917,
      "èŁ": 2918,
      "éĿ¢èĩ¨": 2919,
      "çĬ¯": 2920,
      "ause": 2921,
      "éĩįæĸ°": 2922,
      "ç¿Ĵæħ£": 2923,
      "è·ĿéĽ¢": 2924,
      "äº«åıĹ": 2925,
      "çļĦæĥħæĦŁ": 2926,
      "Ġchar": 2927,
      "æ¸ħæĻ": 2928,
      "Ġthan": 2929,
      "éĨ«åŃ¸": 2930,
      "æīĭæ©Ł": 2931,
      "éĢ£ç·ļ": 2932,
      "ç¹¼çºĮ": 2933,
      "è´": 2934,
      "Ġkmph": 2935,
      "èģĸ": 2936,
      "éĢ²ä¸ĢæŃ¥": 2937,
      "æķĪæŀľ": 2938,
      "æĦıç¾©": 2939,
      "get": 2940,
      "ert": 2941,
      "Ġ16": 2942,
      "åļ´éĩį": 2943,
      "è®ĵæĪĳåĢĳ": 2944,
      "çı¾å¯¦": 2945,
      "è«¾": 2946,
      "tal": 2947,
      "éĤı": 2948,
      "uc": 2949,
      "Ġrec": 2950,
      "ä¸įè¦ģ": 2951,
      "å¥Ĺ": 2952,
      "éł»": 2953,
      "è£ľ": 2954,
      "æĵ´": 2955,
      "å§Ĩ": 2956,
      "ç¢³": 2957,
      "éĢĶ": 2958,
      "äººåı£": 2959,
      "çĽ¡": 2960,
      "oy": 2961,
      "åľ¨éĢĻåĢĭ": 2962,
      "å»¶": 2963,
      "æķ¸éĩı": 2964,
      "Ġcons": 2965,
      "eople": 2966,
      "èĭ±èªŀ": 2967,
      "å°ĩåħ¶": 2968,
      "ose": 2969,
      "Ġem": 2970,
      "æĮīçħ§": 2971,
      "çĿ¡": 2972,
      "è©©æŃĮ": 2973,
      "åį»": 2974,
      "çį²åıĸ": 2975,
      "Ġcol": 2976,
      "éĤĦåı¯ä»¥": 2977,
      "çŃīæĸ¹éĿ¢": 2978,
      "æķ¸åŃ¸": 2979,
      "çĪ¶": 2980,
      "èĮ¶": 2981,
      "ments": 2982,
      "ob": 2983,
      "èĹı": 2984,
      "Ġfunction": 2985,
      "é¤Ĳå»³": 2986,
      "çĶ²": 2987,
      "è²¨": 2988,
      "ç¡": 2989,
      "Ġhypothesis": 2990,
      "é§ķé§Ľ": 2991,
      "Ġcomm": 2992,
      "æī¹": 2993,
      "æľĥèŃ°": 2994,
      "åĲĪçĲĨ": 2995,
      "ç¾İéºĹ": 2996,
      "ä»¥ä¾¿": 2997,
      "æİ¥åıĹ": 2998,
      "å®ļæľŁ": 2999,
      "çĽ®åīį": 3000,
      "ç½ª": 3001,
      "å®Įåħ¨": 3002,
      "ä»¥ä¸ĭæĺ¯ä¸ĢäºĽ": 3003,
      "çĵ¦": 3004,
      "æľīäºĽ": 3005,
      "ĠOut": 3006,
      "Ġpremise": 3007,
      "è·ĳ": 3008,
      "æ¼«": 3009,
      "åĢĭæĢ§": 3010,
      "å°ĩæľĥ": 3011,
      "æļ´": 3012,
      "è®ĵæĪĳ": 3013,
      "çļĦæķħ": 3014,
      "(\"": 3015,
      "æĪĳåĢĳæĩīè©²": 3016,
      "Ġprodu": 3017,
      "çĸĳ": 3018,
      "åĪ¤æĸ·": 3019,
      "ä¼¯": 3020,
      "Ġwork": 3021,
      "åĬĽåĴĮ": 3022,
      "æĸ°å¢ŀ": 3023,
      "éĤıè¼¯": 3024,
      "è«ĭåķı": 3025,
      "æıĲä¾ĽäºĨ": 3026,
      "Ġshould": 3027,
      "éĢ²æŃ¥": 3028,
      "æį·": 3029,
      "å°¤": 3030,
      "40": 3031,
      "çļĦæ³": 3032,
      "èĳĹåĲį": 3033,
      "æ´Ĺ": 3034,
      "æ°¸": 3035,
      "çī©çĲĨ": 3036,
      "ç¬ĳ": 3037,
      "ç¥ŀç¶ĵ": 3038,
      "è½īæıĽ": 3039,
      "Ġ30": 3040,
      "æģ©": 3041,
      "éģµ": 3042,
      "ç·ļä¸Ĭ": 3043,
      "ç¹ģ": 3044,
      "æĿŁ": 3045,
      "åľ¨éĨ«çĻĤ": 3046,
      "æĹ¢": 3047,
      "Ġrel": 3048,
      "æ´Ľ": 3049,
      "ram": 3050,
      "éĻ½åħī": 3051,
      "ild": 3052,
      "åł±åĳĬ": 3053,
      "ark": 3054,
      "app": 3055,
      "Premise": 3056,
      "ä¸ĸç´Ģ": 3057,
      "èĺĭ": 3058,
      "åīµæĦı": 3059,
      "ä¸įåı¯": 3060,
      "çĥĪ": 3061,
      "Ġdiffere": 3062,
      "åĬĽéĩı": 3063,
      "ç¨±çĤº": 3064,
      "èĺĭæŀľ": 3065,
      "Ġmight": 3066,
      "èĢĮä¸įæĺ¯": 3067,
      "ĠIt": 3068,
      "ç¾İé£Ł": 3069,
      "ä¹ĭå¾Į": 3070,
      "çļĦæĦŁ": 3071,
      "oth": 3072,
      "ç±į": 3073,
      "çĶ°": 3074,
      "ting": 3075,
      "Ġcal": 3076,
      "çļĦæł": 3077,
      "æĺł": 3078,
      "èĹ¥çī©": 3079,
      "åħµ": 3080,
      "å®®": 3081,
      "åº¦åĴĮ": 3082,
      "Ġelect": 3083,
      "ä¼ĳ": 3084,
      "æ¯ıå¤©": 3085,
      "ures": 3086,
      "èªŀéŁ³": 3087,
      "éķ·æľŁ": 3088,
      "own": 3089,
      "ĠOutput": 3090,
      "æ¹ĸ": 3091,
      "è²łéĿ¢": 3092,
      "èģĬ": 3093,
      "..": 3094,
      "éĪ": 3095,
      "è¼Ľ": 3096,
      "çļĦçĶŁæ´»": 3097,
      "âĢĶâĢĶ": 3098,
      "ify": 3099,
      "è²Ŀ": 3100,
      "åĽº": 3101,
      "ener": 3102,
      "ari": 3103,
      "æľ«": 3104,
      "åī¯": 3105,
      "ç¿»èŃ¯æĪĲ": 3106,
      "æľĹ": 3107,
      "æ®º": 3108,
      "æı®": 3109,
      "è¦ĸè¦º": 3110,
      "æ°£åĢĻè®ĬåĮĸ": 3111,
      "å®ĥåĢĳçļĦ": 3112,
      "åĮĸåŃ¸": 3113,
      "æĦıåĳ³": 3114,
      "çĩĪ": 3115,
      "ç·¨å¯«": 3116,
      "Ð½": 3117,
      "Ġuse": 3118,
      "è¨ĺæĨ¶": 3119,
      "Ġtrans": 3120,
      "Ġadd": 3121,
      "åĲī": 3122,
      "\")": 3123,
      "çļĦæķħäºĭ": 3124,
      "æĿ¯": 3125,
      "ç¾İåħĥ": 3126,
      "Ġev": 3127,
      "å½±çīĩ": 3128,
      "èĩªçĦ¶èªŀè¨ĢèĻķçĲĨ": 3129,
      "ç¶ŃèŃ·": 3130,
      "èĶ¬": 3131,
      "Ġnew": 3132,
      "éĻĦ": 3133,
      "ergy": 3134,
      "å¿ħè¦ģ": 3135,
      "çĲĨè«ĸ": 3136,
      "éĩıåŃĲ": 3137,
      "æ¸ħæĻ°": 3138,
      "å¹³æĸ¹": 3139,
      "**,": 3140,
      "æ´ŀ": 3141,
      "ç¸®": 3142,
      "åĪĨåĪ¥": 3143,
      "æ§": 3144,
      "Ġass": 3145,
      "æľĢå¤§": 3146,
      "Ġthere": 3147,
      "iled": 3148,
      "æŃ£ç¢ºçļĦ": 3149,
      "ä¸Ģé¦ĸ": 3150,
      "Ġpa": 3151,
      "èħ³": 3152,
      "åĲĪéģ©": 3153,
      "èĢĮä¸Ķ": 3154,
      "ä½Ķ": 3155,
      "ï¼īãĢģ": 3156,
      "Ġ25": 3157,
      "çļĦæĹ¥": 3158,
      "Ġ}": 3159,
      "æĢİéº¼": 3160,
      "èªĮ": 3161,
      "Ġdire": 3162,
      "æĩīå°į": 3163,
      "åı¯èĥ½æĺ¯": 3164,
      "éĢ²åħ¥": 3165,
      "æĬĢå·§": 3166,
      "ics": 3167,
      "é¥": 3168,
      "ä¼´": 3169,
      "å¸Ŀ": 3170,
      "èĥŀ": 3171,
      "çĨŁ": 3172,
      "çļĦå¤§": 3173,
      "stem": 3174,
      "Ġwhat": 3175,
      "æĪĳæľĥ": 3176,
      "äºĨè§£": 3177,
      "è§¸": 3178,
      "åħ¬åı¸çļĦ": 3179,
      "æľŁéĸĵ": 3180,
      "ish": 3181,
      "Ġche": 3182,
      "åģĩè¨Ń": 3183,
      "ç¤¾äº¤åªĴé«Ķ": 3184,
      "æ·±åħ¥": 3185,
      "æĦıåĳ³èĳĹ": 3186,
      "åĭĴ": 3187,
      "ution": 3188,
      "è¦ıåĬĥ": 3189,
      "çļĦæĸ¹å¼ı": 3190,
      "åķĨæ¥Ń": 3191,
      "ä¹ħ": 3192,
      "çļĦä¸ĢåĢĭ": 3193,
      "å®Ļ": 3194,
      "ility": 3195,
      "è±Ĩ": 3196,
      "ç¬¬ä¸ī": 3197,
      "ĠHow": 3198,
      "åĢĴ": 3199,
      "å½Ī": 3200,
      "çĦ¦": 3201,
      "Ġ13": 3202,
      "Ġgiven": 3203,
      "ä¸ĢçĽ´": 3204,
      "ï¼ļ-": 3205,
      "è·¨": 3206,
      "åįĪ": 3207,
      "ĠèĻŁ": 3208,
      "å¯¦é©Ĺ": 3209,
      "èī²çļĦ": 3210,
      "Ñģ": 3211,
      "Ġwhere": 3212,
      "æľīæ²Ĵæľī": 3213,
      "Ġmay": 3214,
      "Ġtyp": 3215,
      "old": 3216,
      "ĠSt": 3217,
      "ailed": 3218,
      "æĳĺè¦ģ": 3219,
      "Ġla": 3220,
      "çļĦæ·": 3221,
      "å¤§åĪ©": 3222,
      "ç·´ç¿Ĵ": 3223,
      "è³´": 3224,
      "çģ½": 3225,
      "Ġcre": 3226,
      "é«ĺçļĦ": 3227,
      "å¾ĮçļĦ": 3228,
      "ings": 3229,
      "æĹ¥æľŁ": 3230,
      "æķı": 3231,
      "æ¯Ľ": 3232,
      "çļĦæ°´": 3233,
      "åħ¬åħ±": 3234,
      "è²¢": 3235,
      "Ġind": 3236,
      "Ġfl": 3237,
      "å¿Ĺ": 3238,
      "å®ĩå®Ļ": 3239,
      "æĪĲéķ·": 3240,
      "ç¤ºä¾ĭ": 3241,
      "çļĦæı": 3242,
      "æĻĤæľŁ": 3243,
      "à¸": 3244,
      "çļĦæķĪ": 3245,
      "è·³": 3246,
      "æĩīè©²æĺ¯": 3247,
      "è¿Ķ": 3248,
      "èĿ": 3249,
      "ç®±": 3250,
      "å±ķç¤º": 3251,
      "Ġsome": 3252,
      "æĥħæ³ģä¸ĭ": 3253,
      "æ©ĭ": 3254,
      "ç«¶çĪŃ": 3255,
      "ĠåĢĭ": 3256,
      "èĶ¬èıľ": 3257,
      "Ġ14": 3258,
      "åĲĮæĻĤä¹Ł": 3259,
      "åķĨåĵģ": 3260,
      "ef": 3261,
      "çĩŁé¤Ĭ": 3262,
      "ä¿Ħ": 3263,
      "èº«ä»½": 3264,
      "éĢĲæ¼¸": 3265,
      "äººçī©": 3266,
      "éĽ»èħ¦": 3267,
      "çļĦæĬĢè¡ĵ": 3268,
      "è·Ł": 3269,
      "ont": 3270,
      "è¨ªåķı": 3271,
      "è£½éĢł": 3272,
      "é¡¯ç¤º": 3273,
      "æĹ¥å¸¸": 3274,
      "è§£æ±ºæĸ¹æ¡Ī": 3275,
      "pr": 3276,
      "ä¾Ĩèĩª": 3277,
      "çļĦæĻĤéĸĵ": 3278,
      "rough": 3279,
      "å·Ŀ": 3280,
      "éĢĢ": 3281,
      "Ġi": 3282,
      "æ³ķåľĭ": 3283,
      "æķĹ": 3284,
      "ĠåĴĮ": 3285,
      "æĢ¥": 3286,
      "å°ıæĺİ": 3287,
      "å©ļ": 3288,
      "çļĦæİ¨çĲĨ": 3289,
      "Ġusing": 3290,
      "è¼ª": 3291,
      "å°ģ": 3292,
      "çļĦæ²": 3293,
      "Ġresult": 3294,
      "iel": 3295,
      "çļĦå·¥ä½ľ": 3296,
      "åŁĥ": 3297,
      "è¶ħéģİ": 3298,
      "Ġact": 3299,
      "é½¡": 3300,
      "ically": 3301,
      "Ġany": 3302,
      "æ¶²": 3303,
      "ä¸¦ä¸į": 3304,
      "åı¯ä»¥åľ¨": 3305,
      "é¦Ļæ¸¯": 3306,
      "--------": 3307,
      "æºĿéĢļ": 3308,
      "æŃĮæĽ²": 3309,
      "çĢ": 3310,
      "æŃ¡è¿İ": 3311,
      "çĦ¡è«ĸ": 3312,
      "éŃ¯": 3313,
      "æ¦Ĥå¿µ": 3314,
      "ä»¥ç¢ºä¿Ŀ": 3315,
      "è¡ĮæĺŁ": 3316,
      "Ġhelp": 3317,
      "uct": 3318,
      "åħ«": 3319,
      "80": 3320,
      "å¹¸": 3321,
      "åĵ¥": 3322,
      "åĶ±": 3323,
      "ï¼ĮâĢľ": 3324,
      "çĽ¸åĲĮ": 3325,
      "çı¾è±¡": 3326,
      "èĪĴéģ©": 3327,
      "ength": 3328,
      "ä¸Ģå®ļ": 3329,
      "Ġtotal": 3330,
      "çĿ£": 3331,
      "çļĦæ±": 3332,
      "Ġ50": 3333,
      "Ġimport": 3334,
      "ãĢĤ\"": 3335,
      "Ġob": 3336,
      "è²´": 3337,
      "æĶ¿æ²»": 3338,
      "ç´Ļ": 3339,
      "ç¢ºèªį": 3340,
      "åħ¬å¹³": 3341,
      "çļĦéĹľéįµ": 3342,
      "ature": 3343,
      "ç´°ç¯Ģ": 3344,
      "æŁ¥è©¢": 3345,
      "èĽĭçĻ½": 3346,
      "å°ĩä»¥ä¸ĭ": 3347,
      "ç´°èĥŀ": 3348,
      "Ġexample": 3349,
      "å»¢": 3350,
      "æĲľ": 3351,
      "Ġinter": 3352,
      "å¯¬": 3353,
      "Ġfollowing": 3354,
      "è¸Ĳ": 3355,
      "é¹½": 3356,
      "æĲŃ": 3357,
      "Ġsame": 3358,
      "æĬĢè¡ĵçļĦ": 3359,
      "æº«åº¦": 3360,
      "èĲĬ": 3361,
      "ä¹İ": 3362,
      "æĥħç·Ĵ": 3363,
      "çķ¶åīį": 3364,
      "Ġspeed": 3365,
      "enc": 3366,
      "èī¾": 3367,
      "éĩĿå°į": 3368,
      "Ġhig": 3369,
      "nce": 3370,
      "å¹£": 3371,
      "äºĭæĥħ": 3372,
      "å¹»": 3373,
      "éĨĴ": 3374,
      "ex": 3375,
      "é¥ĭ": 3376,
      "ä¸ĥ": 3377,
      "Ġcar": 3378,
      "led": 3379,
      "èĪ¹": 3380,
      "åĸ®ä½į": 3381,
      "èĪĬ": 3382,
      "å°¾": 3383,
      "çĶ¨ä¾Ĩ": 3384,
      "å°ļ": 3385,
      "Ġra": 3386,
      "ween": 3387,
      "Ġdec": 3388,
      "è¼Ķ": 3389,
      "ÑĢ": 3390,
      "ä¹³": 3391,
      "Ġthrough": 3392,
      "æ°´æŀľ": 3393,
      "éĢĻæĺ¯ä¸ĢåĢĭ": 3394,
      "çļĦå»ºèŃ°": 3395,
      "çĽ¸å°į": 3396,
      "çĶļ": 3397,
      "é»İ": 3398,
      "åŃ£ç¯Ģ": 3399,
      "è¶³å¤ł": 3400,
      "åĬĳ": 3401,
      "Ġfe": 3402,
      "çī©åĵģ": 3403,
      "Ġ100": 3404,
      "éģŀ": 3405,
      "æľīä¸ĢåĢĭ": 3406,
      "Ġam": 3407,
      "è¦ºå¾Ĺ": 3408,
      "çļĦæ´": 3409,
      "Ġsentence": 3410,
      "æ©ŁåĪ¶": 3411,
      "å¯¦è¸Ĳ": 3412,
      "Ġke": 3413,
      "Ġfind": 3414,
      "éº¥": 3415,
      "çį¨ç«ĭ": 3416,
      "åĭĩ": 3417,
      "ĠLet": 3418,
      "è²¢çį»": 3419,
      "è¨»": 3420,
      "æ®µèĲ½": 3421,
      "æİ¢è¨İ": 3422,
      "ç´Ĳ": 3423,
      "ield": 3424,
      "no": 3425,
      "èªŀæ³ķ": 3426,
      "å¥ı": 3427,
      "å¡ĳèĨł": 3428,
      "éŃĶ": 3429,
      "ood": 3430,
      "éĽ¶": 3431,
      "å¤®": 3432,
      "æİĮ": 3433,
      "éĳ": 3434,
      "éģį": 3435,
      "çµ²": 3436,
      "ä»įçĦ¶": 3437,
      "ss": 3438,
      "åłĤ": 3439,
      "Ġplay": 3440,
      "éĢĻåı¥è©±": 3441,
      "ä¸¦åľ¨": 3442,
      "åĵ²": 3443,
      "çĭĢæ³ģ": 3444,
      "Ġpar": 3445,
      "äº¤æĺĵ": 3446,
      "ç¹ª": 3447,
      "Ġbetween": 3448,
      "éłĨåºı": 3449,
      "éķ·åº¦": 3450,
      "å¼ķèµ·": 3451,
      "åĪĨåŃĲ": 3452,
      "éģ©çķ¶": 3453,
      "^{": 3454,
      "æ¶Īè²»": 3455,
      "æĶ¾é¬Ĩ": 3456,
      "å°ĭæ±Ĥ": 3457,
      "24": 3458,
      "çľŁæŃ£": 3459,
      "åģ´": 3460,
      "èĭ¥": 3461,
      "Ġpeople": 3462,
      "è®ĵäºº": 3463,
      "éģĶåĪ°": 3464,
      "äººé¡ŀçļĦ": 3465,
      "æĪĲç«ĭ": 3466,
      "å»ºç«ĭä¸ĢåĢĭ": 3467,
      "Ġenergy": 3468,
      "è¨Ĥ": 3469,
      "ĠĠĠĠĠĠĠĠĠĠĠĠ": 3470,
      "ray": 3471,
      "åĲįçĤº": 3472,
      "å³°": 3473,
      "ost": 3474,
      "éĦī": 3475,
      "åı¯ä»¥ä½¿çĶ¨": 3476,
      "åŃĹä¸²": 3477,
      "Ġå°ĩ": 3478,
      "round": 3479,
      "è«ĩ": 3480,
      "**.": 3481,
      "NA": 3482,
      "Ġwhile": 3483,
      "è¡¨æĺİ": 3484,
      "æĶ¹éĢ²": 3485,
      "ning": 3486,
      "æ²ī": 3487,
      "ient": 3488,
      "ix": 3489,
      "åĢį": 3490,
      "æľªä¾ĨçļĦ": 3491,
      "itive": 3492,
      "é©ĹèŃī": 3493,
      "éª": 3494,
      "éĨ¬": 3495,
      "åıįé¥ĭ": 3496,
      "çĽ¤": 3497,
      "Ġelectr": 3498,
      "æľīä»Ģéº¼": 3499,
      "Ġprovide": 3500,
      "Ġlist": 3501,
      "åĽ°éĽ£": 3502,
      "å§Ķåĵ¡": 3503,
      "è§£çŃĶ": 3504,
      "è¿·": 3505,
      "çĹĽ": 3506,
      "Ġcomple": 3507,
      "èĭ±åľĭ": 3508,
      "é¡ŀä¼¼": 3509,
      "å½Ļ": 3510,
      "çģĺ": 3511,
      "æ±ł": 3512,
      "çľł": 3513,
      "ä¸Ģä½į": 3514,
      "åħ¶æ¬¡": 3515,
      "ck": 3516,
      "ç«¥": 3517,
      "Ġsub": 3518,
      "èĩªåĭķåĮĸ": 3519,
      "ç¨ħ": 3520,
      "ĠOptions": 3521,
      "Ġmov": 3522,
      "red": 3523,
      "Ġdata": 3524,
      "æ·±åº¦åŃ¸ç¿Ĵ": 3525,
      "ãĢĤ-": 3526,
      "çŃĨ": 3527,
      "é«ĶçļĦ": 3528,
      "Ġäºº": 3529,
      "æĭ¿": 3530,
      "Ġwom": 3531,
      "çĥı": 3532,
      "å¯§": 3533,
      "Ġrem": 3534,
      "è»Ĭç«Ļ": 3535,
      "åŃ¸æł¡": 3536,
      "erson": 3537,
      "éłĤ": 3538,
      "çī¹å®ļçļĦ": 3539,
      "ffect": 3540,
      "erv": 3541,
      "Ð¾Ð": 3542,
      "åľ°æĸ¹": 3543,
      "åħ§éĥ¨": 3544,
      "æĺ¯çĶ±": 3545,
      "Ġ\\[": 3546,
      "åıĸå¾Ĺ": 3547,
      "èķ": 3548,
      "å¹´è¼ķ": 3549,
      "ä¸Ĭä¸ĭ": 3550,
      "Ġspecific": 3551,
      "å°¤åħ¶": 3552,
      "Ġrep": 3553,
      "ä¸ĢèĪ¬": 3554,
      "å·¥æ¥Ń": 3555,
      "çĳª": 3556,
      "æĵĶä»»": 3557,
      "èĥ½éĩı": 3558,
      "çĽ¸äºĴ": 3559,
      "ues": 3560,
      "ä»Ķ": 3561,
      "elf": 3562,
      "Ġag": 3563,
      "çļĦæ¼": 3564,
      "çĩĥ": 3565,
      "çļĦæĢĿèĢĥ": 3566,
      "æ³°": 3567,
      "ĠæľĢå¾Į": 3568,
      "å¼ķæķ¸": 3569,
      "Ġalso": 3570,
      "ink": 3571,
      "Ġinv": 3572,
      "é©ļ": 3573,
      "é«ĺåº¦": 3574,
      "ç§Ģ": 3575,
      "SS": 3576,
      "æĽ´å¥½çļĦ": 3577,
      "æ°ı": 3578,
      "ĨĴ": 3579,
      "Ġmin": 3580,
      "è³ŀ": 3581,
      "Ġthem": 3582,
      "æĹ¨": 3583,
      "éģķ": 3584,
      "ĠAl": 3585,
      "Ġused": 3586,
      "ç¨ĭåº¦": 3587,
      "Ġmod": 3588,
      "è«ĭæıĲä¾Ľ": 3589,
      "ä¸Ńèı¯": 3590,
      "éĿ¢çļĦ": 3591,
      "çķ¶çĦ¶åı¯ä»¥": 3592,
      "éĮ¢": 3593,
      "æµ·æ´ĭ": 3594,
      "Ġ>": 3595,
      "éģİåİ»": 3596,
      "Ġcould": 3597,
      "Ġlet": 3598,
      "Ġbecause": 3599,
      "éłģ": 3600,
      "çµ¦åĩºä½ł": 3601,
      "Ġunder": 3602,
      "çĶļèĩ³": 3603,
      "æŃ£å¼ı": 3604,
      "lic": 3605,
      "Ġher": 3606,
      "ily": 3607,
      "âĢĻ": 3608,
      "å¹«æĪĳ": 3609,
      "éĤĦè¦ģ": 3610,
      "æ¨¡æĵ¬": 3611,
      "ĠInput": 3612,
      "é¡Ĩ": 3613,
      "çļĦæķĻ": 3614,
      "çł´å£ŀ": 3615,
      "cess": 3616,
      "çķ¶æĻĤ": 3617,
      "éľĩ": 3618,
      "éĩįè¤ĩ": 3619,
      "çĩĴ": 3620,
      "éłĺå°İ": 3621,
      "199": 3622,
      "åħ¬æŃ£": 3623,
      "ä¹Łæľĥ": 3624,
      "Ġonly": 3625,
      "ĠExample": 3626,
      "ä¾ĨæºĲ": 3627,
      "è¿½æ±Ĥ": 3628,
      "ç¡¬": 3629,
      "è¿ª": 3630,
      "æĤ£èĢħ": 3631,
      "åĨł": 3632,
      "äºĪ": 3633,
      "å¢ŀéķ·": 3634,
      "åĨ¬": 3635,
      "Ø§": 3636,
      "æĮĩçļĦæĺ¯": 3637,
      "ç¶ĵéģİ": 3638,
      "ä¸Ńå¤®": 3639,
      "çļĦæĽ": 3640,
      "cript": 3641,
      "è©ķè«ĸ": 3642,
      "çĳŀ": 3643,
      "èĢĹ": 3644,
      "æľīä¸Ģ": 3645,
      "ular": 3646,
      "éĿ¢å°į": 3647,
      "ç¶łèī²": 3648,
      "åĤ¾": 3649,
      "))": 3650,
      "å¹ķ": 3651,
      "åĦªåĭ¢": 3652,
      "çĳľ": 3653,
      "åĴĮç¤¾æľĥ": 3654,
      "hen": 3655,
      "æİĴåºı": 3656,
      "è³¼çī©": 3657,
      "com": 3658,
      "å°º": 3659,
      "è¿´åľĪ": 3660,
      "éĥµä»¶": 3661,
      "æľīèĳĹ": 3662,
      "Ġsystem": 3663,
      "çľŁå¯¦": 3664,
      "AIæĬĢè¡ĵ": 3665,
      "Ġac": 3666,
      "Ġthen": 3667,
      "æı¡": 3668,
      "als": 3669,
      "æķĳ": 3670,
      "ĠAn": 3671,
      ".\"?": 3672,
      "èĢĲ": 3673,
      "22": 3674,
      "çĶ³": 3675,
      "ä¸Ĭæµ·": 3676,
      "Ġsum": 3677,
      "æĬĺ": 3678,
      "ract": 3679,
      "ä¸ģ": 3680,
      "âĢĵ": 3681,
      "Ġrequ": 3682,
      "çļĦå°ı": 3683,
      "åĦĺç®¡": 3684,
      "è¶³çĲĥ": 3685,
      "ç²¾ç¥ŀ": 3686,
      "èĦĤ": 3687,
      "è²łè²¬": 3688,
      "æŁĲåĢĭ": 3689,
      "éĽª": 3690,
      "tep": 3691,
      "æİĪ": 3692,
      "æħ¶": 3693,
      "æĽ¼": 3694,
      "ĠĠĠĠĠĠĠĠĠ": 3695,
      "ç°¡åĸ®çļĦ": 3696,
      "ax": 3697,
      "Ġstre": 3698,
      "ä¹Ŀ": 3699,
      "çŃīæĸ¼": 3700,
      "ä¾Ŀè³´": 3701,
      "Ġstand": 3702,
      "æµģç¨ĭ": 3703,
      "Ġtrue": 3704,
      "èĻĽæĵ¬": 3705,
      "æĻĤä»£": 3706,
      "ä¹ı": 3707,
      "äº¡": 3708,
      "çļĦæ¬": 3709,
      "è©ķåĥ¹": 3710,
      "ases": 3711,
      "é¬¥": 3712,
      "çļĦéĩįè¦ģæĢ§": 3713,
      "Ġé¦ĸåħĪ": 3714,
      "æļĹ": 3715,
      "é£¯": 3716,
      "li": 3717,
      "ava": 3718,
      "åı¯èĥ½çļĦ": 3719,
      "èī¯å¥½çļĦ": 3720,
      "æ®Ĭ": 3721,
      "å¹´é½¡": 3722,
      "ä½łèĥ½": 3723,
      "åĭķä½ľ": 3724,
      "ask": 3725,
      "æķĪèĥ½": 3726,
      "æĳ©": 3727,
      "åĳ¼åĲ¸": 3728,
      "åĲįè©ŀ": 3729,
      "éģ©éĩı": 3730,
      "Ġmany": 3731,
      "çĶŁæħĭç³»çµ±": 3732,
      "åŁ¹è¨ĵ": 3733,
      "Ġentailed": 3734,
      "æľīæīĢ": 3735,
      "ural": 3736,
      "ç¾©å¤§åĪ©": 3737,
      "Ġdifferent": 3738,
      "ç¥Ŀ": 3739,
      "Hypothesis": 3740,
      "è°": 3741,
      "æĶ¶éĽĨ": 3742,
      "çļĦæ·±": 3743,
      "èªł": 3744,
      "ĠBut": 3745,
      "å¾Ĺåĩº": 3746,
      "æĩ·": 3747,
      "å¯«ä½ľ": 3748,
      "box": 3749,
      "eg": 3750,
      "çıį": 3751,
      "ci": 3752,
      "éĻ¤äºĨ": 3753,
      "ĠYou": 3754,
      "fore": 3755,
      "çĶľ": 3756,
      "éįĬ": 3757,
      "æĭį": 3758,
      "Ġlong": 3759,
      "åŃĹæ¯į": 3760,
      "è¿ĶåĽŀ": 3761,
      "å®ĹæķĻ": 3762,
      "çļĦéľĢæ±Ĥ": 3763,
      "ize": 3764,
      "éĸĭæĶ¾": 3765,
      "çµĦåĲĪ": 3766,
      "Ġmean": 3767,
      "è°·": 3768,
      "èª¿æŁ¥": 3769,
      "éĩĭåĩº": 3770,
      "ĠCh": 3771,
      "åĿ¦": 3772,
      "æĸĩåŃĹ": 3773,
      "èĤĮ": 3774,
      "éĹľéįµè©ŀ": 3775,
      "ethod": 3776,
      "çĤİ": 3777,
      "çŁŃèªŀ": 3778,
      "åĽŀçŃĶåķıé¡Į": 3779,
      "ä¸ĭçļĦ": 3780,
      "ä½ľèĢħ": 3781,
      "Ġ\\,": 3782,
      "ç¶ĵåħ¸": 3783,
      "æľīå¾Īå¤ļ": 3784,
      "Ġset": 3785,
      "å±Ĩ": 3786,
      "èª²ç¨ĭ": 3787,
      "rit": 3788,
      "çŃīéłĺåŁŁ": 3789,
      "ä¸Ģæ¨£": 3790,
      "éģĩåĪ°": 3791,
      "åģıè¦ĭ": 3792,
      "çļĦåħ§å®¹": 3793,
      "æĸĩæľ¬ä¸Ń": 3794,
      "Â²": 3795,
      "åĴĮæĸĩåĮĸ": 3796,
      "Ġdist": 3797,
      "æ¿ĥ": 3798,
      "æĩīçĶ¨ç¨ĭå¼ı": 3799,
      "Ġsim": 3800,
      "ç¢ºå¯¦": 3801,
      "ĠProblem": 3802,
      "å¼±": 3803,
      "çµĲæĿŁ": 3804,
      "Ġconclude": 3805,
      "ĠFor": 3806,
      "}}": 3807,
      "Ġnum": 3808,
      "æ¸¸": 3809,
      "Â°": 3810,
      "éĸī": 3811,
      "å®Įæķ´": 3812,
      "Ġsecond": 3813,
      "èŁ²": 3814,
      "åĮ¹": 3815,
      "Ġfirst": 3816,
      "æ¡Ĩ": 3817,
      "æł¸å¿ĥ": 3818,
      "ait": 3819,
      "èªįçŁ¥": 3820,
      "ä¼½": 3821,
      "çī©ä»¶": 3822,
      "åł±éģĵ": 3823,
      "å¸¸è¦ĭçļĦ": 3824,
      "Ġsign": 3825,
      "Ġcorrect": 3826,
      "åı£æĦŁ": 3827,
      "ug": 3828,
      "åĳĪ": 3829,
      "çļĦæĿ": 3830,
      "Ġmass": 3831,
      "æ£Ħ": 3832,
      "Ġæĺ¯": 3833,
      "çħ®": 3834,
      "Ġ||": 3835,
      "'re": 3836,
      "çī¹æ®Ĭ": 3837,
      "åĴĮåħ¶ä»ĸ": 3838,
      "Ġsm": 3839,
      "vers": 3840,
      "Ġwho": 3841,
      "è§Ģå¯Ł": 3842,
      "åį³æĻĤ": 3843,
      "çİ©å®¶": 3844,
      "Ġmake": 3845,
      "ä½¿åħ¶": 3846,
      "æĲľå°ĭ": 3847,
      "io": 3848,
      "Ġcur": 3849,
      "ãĢĭï¼Į": 3850,
      "èĨļ": 3851,
      "åŁºåĽł": 3852,
      "æ¹¯": 3853,
      "ove": 3854,
      "çļĦæĹħ": 3855,
      "Ġ24": 3856,
      "å»ºè¨Ń": 3857,
      "ohn": 3858,
      "å®īæİĴ": 3859,
      "æŁĶ": 3860,
      "è¦ıå®ļ": 3861,
      "çį¨çī¹çļĦ": 3862,
      "ç¥ŀç§ĺ": 3863,
      "å®£åĤ³": 3864,
      "gen": 3865,
      "åīĽ": 3866,
      "æ°§åĮĸ": 3867,
      "ful": 3868,
      "çĻ¼æı®": 3869,
      "è¦½": 3870,
      "æİĴæĶ¾": 3871,
      "è¬Ľè¿°": 3872,
      "åł¡": 3873,
      "æĽ´æĸ°": 3874,
      "åľ¨æĸ¼": 3875,
      "è©ŀå½Ļ": 3876,
      "æĶ¶åħ¥": 3877,
      "{\\": 3878,
      "éļĶ": 3879,
      "Ġinte": 3880,
      "åŃ¸ç¿ĴåĴĮ": 3881,
      "å¸Ń": 3882,
      "åĪĨçĤº": 3883,
      "angu": 3884,
      "Ġ?": 3885,
      "Ġmat": 3886,
      "åĪĨéħį": 3887,
      "ç¾İå¥½": 3888,
      "æ··åĲĪ": 3889,
      "ower": 3890,
      "æĦŁåıĹ": 3891,
      "ĠèĲ¬": 3892,
      "éįĽ": 3893,
      "åĵ²åŃ¸": 3894,
      "éļİæ®µ": 3895,
      "åĤĳ": 3896,
      "æ»ĳ": 3897,
      "æĦĽæĥħ": 3898,
      "âĤĤ": 3899,
      "Ġele": 3900,
      "çĽ¸éĹľçļĦ": 3901,
      "æ½¤": 3902,
      "ä¸Ĭä¸ĭæĸĩ": 3903,
      "åħ¬å¼ı": 3904,
      "ç¾ħæĸ¯": 3905,
      "ä¿®æĶ¹": 3906,
      "è¡¨éĿ¢": 3907,
      "çĶ·æĢ§": 3908,
      "å®¶å±ħ": 3909,
      "å°±æ¥Ń": 3910,
      "åħ±åĴĮ": 3911,
      "éĥ¨éĸĢ": 3912,
      "çĴ°å¢ĥä¿ĿèŃ·": 3913,
      "ern": 3914,
      "éı¡": 3915,
      "Ġthese": 3916,
      "åºĬ": 3917,
      "åī©": 3918,
      "ç¶ĵå¸¸": 3919,
      "çĿ¡çľł": 3920,
      "µçī©": 3921,
      "è®ĢèĢħ": 3922,
      "fer": 3923,
      "èŃ½": 3924,
      "Ġget": 3925,
      "Ġ//": 3926,
      "Ġshe": 3927,
      "Cl": 3928,
      "Ã©": 3929,
      "çļĦåľ°æĸ¹": 3930,
      "45": 3931,
      "åħģ": 3932,
      "æİ¨å»£": 3933,
      "æ¦®": 3934,
      "åĩºä¾Ĩ": 3935,
      "åıĬæĻĤ": 3936,
      "ç¦ģ": 3937,
      "å¥¹çļĦ": 3938,
      "å¤ıåŃ£": 3939,
      "çĶŁæ´»ä¸Ń": 3940,
      "Ġ199": 3941,
      "Is": 3942,
      "æĶ»æĵĬ": 3943,
      "Ġboth": 3944,
      "éļĽç¶²è·¯": 3945,
      "ç½²": 3946,
      "Ġì": 3947,
      "çĽ´åĪ°": 3948,
      "æĬ½": 3949,
      "Ġz": 3950,
      "Ġmult": 3951,
      "èĢĮæĺ¯": 3952,
      "æĥł": 3953,
      "åķıé¡ĮçļĦ": 3954,
      "Ġstate": 3955,
      "æ¨Ļé¡Į": 3956,
      "Ġright": 3957,
      "åĶĲ": 3958,
      "äº¦": 3959,
      "åŃ¤": 3960,
      "ç¶²éļĽç¶²è·¯": 3961,
      "æĺ¯åĲ¦æľī": 3962,
      "åı¯èĥ½å°İèĩ´": 3963,
      "éĬĢè¡Į": 3964,
      "åĿĢ": 3965,
      "èİ«": 3966,
      "åĪº": 3967,
      "ä¿Ŀåģ¥": 3968,
      "Ġgener": 3969,
      "Ġconst": 3970,
      "éĽħ": 3971,
      "åĦĦ": 3972,
      "è®Ĭæķ¸": 3973,
      "æįķ": 3974,
      "âĢĿãĢģ": 3975,
      "other": 3976,
      "çĽŁ": 3977,
      "åģ¥èº«": 3978,
      "éģİåº¦": 3979,
      "anc": 3980,
      "æ°ĳæĹı": 3981,
      "éĤ£äºĽ": 3982,
      "ince": 3983,
      "çĪĨ": 3984,
      "èĥ¡": 3985,
      "çļĦæ¸": 3986,
      "å¡«": 3987,
      "ç§»åĭķ": 3988,
      "Ġclass": 3989,
      "çİī": 3990,
      "formation": 3991,
      ".,": 3992,
      "åĦĢ": 3993,
      "è§Ĵåº¦": 3994,
      "hed": 3995,
      "èŃľ": 3996,
      "ãĢĭãĢģ": 3997,
      "è²¡åĭĻ": 3998,
      "Ġpoint": 3999,
      "sh": 4000,
      "å¤ªç©º": 4001,
      "å·´é»İ": 4002,
      "åĬĽçļĦ": 4003,
      "å¯¦æĸ½": 4004,
      "23": 4005,
      "æĪĳå°ĩ": 4006,
      "æĮĩå°İ": 4007,
      "å¹¸ç¦ı": 4008,
      "åĬī": 4009,
      "çĶ¨çļĦ": 4010,
      "Ġfr": 4011,
      "æľīéĻĲ": 4012,
      "æ¸ħæ½Ķ": 4013,
      "è¨Ńæĸ½": 4014,
      "æĪ°çĪŃ": 4015,
      "çĤĴ": 4016,
      "ç¼ºä¹ı": 4017,
      "Ġä½¿çĶ¨": 4018,
      "èĤ¥": 4019,
      "çļĦæ¨Ļ": 4020,
      "éįĽéįĬ": 4021,
      "éľĢè¦ģæ³¨æĦı": 4022,
      "Ġcalcul": 4023,
      "éģŃ": 4024,
      "Ġincre": 4025,
      "æ·¨": 4026,
      "ç¸½çµ±": 4027,
      "å¹ħ": 4028,
      "å®īè£Ŀ": 4029,
      "ever": 4030,
      "boxed": 4031,
      "æĮĩåĩº": 4032,
      "æ¤Ĵ": 4033,
      "å¸¶ä¾ĨäºĨ": 4034,
      "çĳľä¼½": 4035,
      "é¡ŀåĪ¥": 4036,
      "å°įæĸ¹": 4037,
      "æĭĽ": 4038,
      "æµģè¡Į": 4039,
      "æ¢ħ": 4040,
      "Ġtem": 4041,
      "Ġ17": 4042,
      "å¨Ľ": 4043,
      "åĥ¹åĢ¼è§Ģ": 4044,
      "ĠAI": 4045,
      "çļĦè¡ĮçĤº": 4046,
      "rent": 4047,
      "çĽ§": 4048,
      "çıł": 4049,
      "çļĦæ©Łæľĥ": 4050,
      "å¹´çļĦ": 4051,
      "ç¸¾": 4052,
      "è³ĵ": 4053,
      "æ±ºæĸ¼": 4054,
      "æª¢æ¸¬": 4055,
      "èģ²éŁ³": 4056,
      "åĿĲ": 4057,
      "çļĦæ´»": 4058,
      "Ġfact": 4059,
      "è«®": 4060,
      "å»ł": 4061,
      "Ġel": 4062,
      "æĥ¡": 4063,
      "ery": 4064,
      "ential": 4065,
      "åıĸæ±ºæĸ¼": 4066,
      "¢å¾©": 4067,
      "Ġdog": 4068,
      "å»£åĳĬ": 4069,
      "åĽłçĤºå®ĥ": 4070,
      "ç¶ľåĲĪ": 4071,
      "ç³ķ": 4072,
      "ä»ĸäºº": 4073,
      "æĦŁè¦º": 4074,
      "ç¸½çļĦ": 4075,
      "Ġ40": 4076,
      "agn": 4077,
      "èĴĤ": 4078,
      "ĠWe": 4079,
      "æĪĲçĤºäºĨ": 4080,
      "èĦħ": 4081,
      "Ġatom": 4082,
      "åĨĴ": 4083,
      "mol": 4084,
      "cent": 4085,
      "æ§ĭå»º": 4086,
      "æľĢé«ĺ": 4087,
      "ines": 4088,
      "å¤©çļĦ": 4089,
      "éįĭ": 4090,
      "ä¿±": 4091,
      "çļĦæİ¨çĲĨéģİç¨ĭ": 4092,
      "è«®è©¢": 4093,
      "Ġæİ¥ä¸ĭä¾Ĩ": 4094,
      "çĽ¸ä¼¼": 4095,
      "Ġyear": 4096,
      "Ġbo": 4097,
      "å¨Ľæ¨Ĥ": 4098,
      "æĶ¯ä»ĺ": 4099,
      "çīĪæľ¬": 4100,
      "Ġmy": 4101,
      "æļ¢": 4102,
      "âĢĿãĢģâĢľ": 4103,
      "Ġlangu": 4104,
      "In": 4105,
      "èıĮ": 4106,
      "ä¿ĿèŃī": 4107,
      "Ġexpl": 4108,
      "åħģè¨±": 4109,
      ");": 4110,
      "Ġbu": 4111,
      "Ġappro": 4112,
      "åħ¬çľ¾": 4113,
      "Ġbook": 4114,
      "éª¨": 4115,
      "åĪĹåĩº": 4116,
      "etic": 4117,
      "çļĦä¸»": 4118,
      "ĠæĪĳ": 4119,
      "æ²¿": 4120,
      "äººå·¥æĻºæħ§çļĦ": 4121,
      "çĽ¸æĩī": 4122,
      "Ġnumbers": 4123,
      "çĺ": 4124,
      "ä»¤äºº": 4125,
      "Ġreg": 4126,
      "æĦī": 4127,
      "éĢıæĺİ": 4128,
      "é¨İ": 4129,
      "ä»°": 4130,
      "fter": 4131,
      "äºĭå¯¦": 4132,
      "æĢĿç¶Ń": 4133,
      "St": 4134,
      "ten": 4135,
      "åĬ©æīĭ": 4136,
      "åĢĭæĢ§åĮĸ": 4137,
      "åĢ¼å¾Ĺ": 4138,
      "åĶ¯": 4139,
      "è¾²æ¥Ń": 4140,
      "ä»Ķç´°": 4141,
      "Ġperson": 4142,
      "Ġ\\]": 4143,
      "åİŁåīĩ": 4144,
      "æ¶īåıĬåĪ°": 4145,
      "ç¬¬ä¸ĢåĢĭ": 4146,
      "Ġdeterm": 4147,
      "å¨ģèĦħ": 4148,
      "çĶŁéķ·": 4149,
      "æĿ¾": 4150,
      "Ġwoman": 4151,
      "çļĩ": 4152,
      "åĲĮæ¨£": 4153,
      "é»ĺ": 4154,
      "ç¿°": 4155,
      "ä¹Łæľī": 4156,
      "åıªæĺ¯": 4157,
      "ä¸ĭéĿ¢çļĦåķıé¡Į": 4158,
      "ç¸½çļĦä¾Ĩèªª": 4159,
      "æĺ¯çļĦ": 4160,
      "çĶŁåŃĺ": 4161,
      "Ġfield": 4162,
      "æ±ģ": 4163,
      "Ġmost": 4164,
      "Ġcode": 4165,
      "Ġlength": 4166,
      "è¡¨æł¼": 4167,
      "è¨Ĺ": 4168,
      "Ġtrain": 4169,
      "å½¼": 4170,
      "èĦ«": 4171,
      "çļĦä¸»é¡Į": 4172,
      "çļĦæł¸": 4173,
      "æĸ¹ç¨ĭ": 4174,
      "çļĦæ³ķ": 4175,
      "è³£": 4176,
      "éłĲéĺ²": 4177,
      "Ġwant": 4178,
      "è²»çĶ¨": 4179,
      "èĢ³": 4180,
      "ĠâĨĴ": 4181,
      "ä¸Ĭè¿°": 4182,
      "å¹«åĬ©æĤ¨": 4183,
      "Ġdirect": 4184,
      "è¦ĸçĤº": 4185,
      "num": 4186,
      "éŁĵ": 4187,
      "To": 4188,
      "çĽĽ": 4189,
      "Ġdown": 4190,
      "èªįèŃĺ": 4191,
      "é´": 4192,
      "ä¹Łå°±æĺ¯": 4193,
      "åĲĦåĢĭ": 4194,
      "ĠWh": 4195,
      "ðŁ": 4196,
      "æĸĩåĮĸåĴĮ": 4197,
      "è¦ıæ¨¡": 4198,
      "Ġ####": 4199,
      "åľ°æĢĿèĢĥ": 4200,
      "æģ¢å¾©": 4201,
      "æ§į": 4202,
      "æ³¡": 4203,
      "çļĦæĢĿèĢĥéģİç¨ĭ": 4204,
      "åĭ»": 4205,
      "val": 4206,
      "olum": 4207,
      "æģĨ": 4208,
      "åħ±åĴĮåľĭ": 4209,
      "åľ°é»ŀ": 4210,
      "çĽ®çļĦ": 4211,
      "æ¥ŃåĭĻ": 4212,
      "ä¸ĢåĲį": 4213,
      "çļĦåı¥åŃĲ": 4214,
      "Ġ60": 4215,
      "rt": 4216,
      "å¿«æ¨Ĥ": 4217,
      "å«": 4218,
      "Ġvalue": 4219,
      "ities": 4220,
      "48": 4221,
      "èģĺ": 4222,
      "çļĦåħ·é«Ķ": 4223,
      "Ġmet": 4224,
      "to": 4225,
      "å¯µçī©": 4226,
      "è»Ĭè¼Ľ": 4227,
      "21": 4228,
      "åĪĨä½Ī": 4229,
      "ä¸ĬæľĢ": 4230,
      "æº«æļĸ": 4231,
      "åı¯æĮģçºĮçĻ¼å±ķ": 4232,
      "åĵªåĢĭ": 4233,
      "çļĦæµ·": 4234,
      "è»Į": 4235,
      "right": 4236,
      "uring": 4237,
      "åģ¶": 4238,
      "éĸĭåķŁ": 4239,
      "ally": 4240,
      "èĩªèº«": 4241,
      "Ġgre": 4242,
      "çĽ£æ¸¬": 4243,
      "olog": 4244,
      "çļĦæ°£": 4245,
      "æŃĲæ´²": 4246,
      "é¤ħ": 4247,
      "ĠPython": 4248,
      "èŃīæĺİ": 4249,
      "åİļ": 4250,
      "ium": 4251,
      "é«ĶèĤ²": 4252,
      "çļĦæ¼Ķ": 4253,
      "ula": 4254,
      "æ¶µ": 4255,
      "æ£Ĵ": 4256,
      "ä½Ľ": 4257,
      "fl": 4258,
      "ock": 4259,
      "éŀ": 4260,
      "ä¸ĢæŃ¥ä¸ĢæŃ¥": 4261,
      "Ġtake": 4262,
      "çļĦæĮĩ": 4263,
      "åĤ³æĴŃ": 4264,
      "çļĦæīĢ": 4265,
      "å£¤": 4266,
      "åį³åı¯": 4267,
      "å°¼äºŀ": 4268,
      "éĢıéģİ": 4269,
      "ç¬¦èĻŁ": 4270,
      "æ·±åĪ»": 4271,
      "æĩīçĶ¨æĸ¼": 4272,
      "lease": 4273,
      "è³¬": 4274,
      "å¤§å°ı": 4275,
      "æº¼": 4276,
      "ãĢĭãĢģãĢĬ": 4277,
      "70": 4278,
      "æĹĭ": 4279,
      "æ³ķè¦ı": 4280,
      "èį·": 4281,
      "ç¤Ļ": 4282,
      "çµ¦åĩºä½łçļĦæİ¨çĲĨéģİç¨ĭ": 4283,
      "ta": 4284,
      "å¼Ĺ": 4285,
      "åīįå¾Ģ": 4286,
      "ç¾İåĳ³": 4287,
      "è§Ģçľ¾": 4288,
      "Ġ\\)": 4289,
      "æł¼å¼ı": 4290,
      "çļĦçĴ°å¢ĥ": 4291,
      "èĴĻ": 4292,
      "æª¢è¦ĸ": 4293,
      "éĽĦ": 4294,
      "æ³³": 4295,
      "çĲĨè§£åĴĮ": 4296,
      "èªįçľŁåľ°æĢĿèĢĥ": 4297,
      "è¸ı": 4298,
      "What": 4299,
      "åŃĲçļĦ": 4300,
      "è¢ĭ": 4301,
      "éļ¨æ©Ł": 4302,
      "not": 4303,
      "ber": 4304,
      "ä¾µ": 4305,
      "ç¤¦": 4306,
      "åİŁçĲĨ": 4307,
      "75": 4308,
      "å¿ĺ": 4309,
      "è¦Ĩèĵĭ": 4310,
      "å°Īæ³¨": 4311,
      "éĽ£ä»¥": 4312,
      "å¹²": 4313,
      "çļĦå®īåħ¨": 4314,
      "éĥ½æľĥ": 4315,
      "Ġç±³": 4316,
      "éĺ»": 4317,
      "æīĢéľĢ": 4318,
      "Ġcost": 4319,
      "è«§": 4320,
      "æ½Ľåľ¨": 4321,
      "éĻ£åĪĹ": 4322,
      "Ġpaint": 4323,
      "å¾·åľĭ": 4324,
      "ç¾¤é«Ķ": 4325,
      "åıĹæŃ¡è¿İ": 4326,
      "Ġtext": 4327,
      "æĦŁè¬Ŀ": 4328,
      "ä»¥ä¸ĭåı¥åŃĲ": 4329,
      ")-": 4330,
      "Ġvari": 4331,
      "ç§ĳåŃ¸å®¶": 4332,
      "ï¼īï¼ļ": 4333,
      "æķ¸çļĦ": 4334,
      "èĩ³å°ĳ": 4335,
      "åı¯éĿł": 4336,
      "ven": 4337,
      "Ġuser": 4338,
      "æİĮæı¡": 4339,
      "åı¦ä¸ĢåĢĭ": 4340,
      "con": 4341,
      "èĦĪ": 4342,
      "çļĦéĽ»å½±": 4343,
      "Ġwal": 4344,
      "Ġobject": 4345,
      "çĤ¸": 4346,
      "æ¬£": 4347,
      "çĽ¸ä¿¡": 4348,
      "æ¶¼": 4349,
      "ä¿Ŀéļľ": 4350,
      "æıĲä¾ĽæĽ´": 4351,
      "yes": 4352,
      "ĠãĢĬ": 4353,
      "åħ§çļĦ": 4354,
      "Ġresp": 4355,
      "ç´Ĳç´Ħ": 4356,
      "ird": 4357,
      "ç´Ħç¿°": 4358,
      "è¡Ŀçªģ": 4359,
      "åĲĪéģ©çļĦ": 4360,
      "çķª": 4361,
      "å²¸": 4362,
      "Ġdiv": 4363,
      "åı£åĳ³": 4364,
      "åľ°çĲĨ": 4365,
      "ices": 4366,
      "çĨĬ": 4367,
      "yd": 4368,
      "è£Ķ": 4369,
      "ç¯ĢçĽ®": 4370,
      "æľ¬èº«": 4371,
      "AP": 4372,
      "æİī": 4373,
      "Ġinformation": 4374,
      "Ġgra": 4375,
      "å£½": 4376,
      "è¹¤": 4377,
      "éĢļè¨Ĭ": 4378,
      "è¼ĶåĬ©": 4379,
      "Ġloo": 4380,
      "ä½¿çĶ¨èĢħåķı": 4381,
      "çļĦæĮĳæĪ°": 4382,
      "ake": 4383,
      "èİī": 4384,
      "Ġsuch": 4385,
      "æ¯ıåĢĭäººéĥ½": 4386,
      "çļĦä½¿çĶ¨": 4387,
      "åĴĮä¸į": 4388,
      "æĵ¾": 4389,
      "åı¯ä»¥è®ĵ": 4390,
      "å±ķçı¾": 4391,
      "æĦŁèĪĪè¶£": 4392,
      "çļĦæ¯Ķ": 4393,
      "åĸĿ": 4394,
      "æĻ¯é»ŀ": 4395,
      "Ġleft": 4396,
      "çķ¢": 4397,
      "åħ¨éĿ¢": 4398,
      "ian": 4399,
      "é«®": 4400,
      "åĭķæħĭ": 4401,
      "çļĦæĦĽ": 4402,
      "500": 4403,
      "æĲŃéħį": 4404,
      "å¯¸": 4405,
      "è²¼": 4406,
      "aw": 4407,
      "åĪ©çĽĬ": 4408,
      "ä¸ŃæľĢ": 4409,
      "å±ĭ": 4410,
      "ä»ĸåľ¨": 4411,
      "çľĭèµ·ä¾Ĩ": 4412,
      "éĢĻæ¨£çļĦ": 4413,
      "æ£®æŀĹ": 4414,
      "å¹¹": 4415,
      "ized": 4416,
      "èĤ¯": 4417,
      "åĳ½ä»¤": 4418,
      "éłĲç®Ĺ": 4419,
      "æ³¨éĩį": 4420,
      "ä½łå¥½": 4421,
      "åĭķåĬĽ": 4422,
      "éº»": 4423,
      "åħ¨åľĭ": 4424,
      "åİŁå§ĭ": 4425,
      "ren": 4426,
      "éĥ¨éĽ»å½±": 4427,
      "æĶ¾åľ¨": 4428,
      "çļĦä¸Ģéĥ¨åĪĨ": 4429,
      "æĪĲåĪĨ": 4430,
      "ute": 4431,
      "è®Ĭæļĸ": 4432,
      "()`": 4433,
      "Ġhigh": 4434,
      "ä¸įéĮ¯": 4435,
      "ĠStep": 4436,
      "è¼ķé¬Ĩ": 4437,
      "ross": 4438,
      "æľ¬æĽ¸": 4439,
      "è¢«èªįçĤº": 4440,
      "ãĢįï¼Į": 4441,
      "ç´ħèī²": 4442,
      "ç¨®æĹıæŃ§è¦ĸ": 4443,
      "99": 4444,
      "è¡ĵèªŀ": 4445,
      "åįĢå¡Ĭ": 4446,
      "æĸ¹ä¾¿": 4447,
      "æ¡Ĩæŀ¶": 4448,
      "å½¢çĭĢ": 4449,
      "Ġpol": 4450,
      "å¼ķçĻ¼": 4451,
      "çļĦæ´»åĭķ": 4452,
      "dd": 4453,
      "æģĲ": 4454,
      "å¾Įä¾Ĩ": 4455,
      "è¨ĬèĻŁ": 4456,
      "ãĢĭãĢĤ": 4457,
      "å¦Ĥä½ķåľ¨": 4458,
      "iss": 4459,
      "æĹ¨åľ¨": 4460,
      "kes": 4461,
      "åĮĹéĥ¨": 4462,
      "éĢĻæĺ¯ä¸Ģ": 4463,
      "æ¯«": 4464,
      "åĭķè©ŀ": 4465,
      "å®¶äºº": 4466,
      "åħĴç«¥": 4467,
      "uch": 4468,
      "è¡ĮæĶ¿": 4469,
      "ational": 4470,
      "ĠThere": 4471,
      "çµ±è¨Ī": 4472,
      "åı¤ä»£": 4473,
      "çĦ¦æħ®": 4474,
      "çļĦæīĢæľī": 4475,
      "br": 4476,
      "ç·¨è¼¯": 4477,
      "ention": 4478,
      "èĽĭçĻ½è³ª": 4479,
      "Ġsk": 4480,
      "ä»¥ä¸ĭæĸĩæľ¬": 4481,
      "åłħæĮģ": 4482,
      "èī²å½©": 4483,
      "çļĦæķ¸éĩı": 4484,
      "çīĨ": 4485,
      "çĻĮ": 4486,
      "èĬ¬": 4487,
      "éĿĪæ´»": 4488,
      "çļĦæĶ¯": 4489,
      "åĳ¨åľį": 4490,
      "Ġ32": 4491,
      "name": 4492,
      "Ġgrou": 4493,
      "æķ¬": 4494,
      "çµĲè«ĸ": 4495,
      "åĲ«ç¾©": 4496,
      "å½¢å®¹": 4497,
      "ĠHowever": 4498,
      "list": 4499,
      "æ°£é«Ķ": 4500,
      "èĶ¥": 4501,
      "XX": 4502,
      "ems": 4503,
      "åı¯èĥ½æľĥå°İèĩ´": 4504,
      "çļĦæł¸å¿ĥ": 4505,
      "æĭ¼": 4506,
      "ash": 4507,
      "ains": 4508,
      "Ġlanguage": 4509,
      "åį·": 4510,
      "Ġprocess": 4511,
      "ç¤¾æľĥçļĦ": 4512,
      "çªĹ": 4513,
      "æĢ§åĪ¥æŃ§è¦ĸ": 4514,
      "Ġstring": 4515,
      "Ġkey": 4516,
      "çļĦæĻĤåĢĻ": 4517,
      "èĪīè¡Į": 4518,
      "åŁ¹é¤Ĭ": 4519,
      "éĩįé»ŀ": 4520,
      "Ġcount": 4521,
      "åıĥèĢĥ": 4522,
      "é«ĺéļİ": 4523,
      "gram": 4524,
      "aring": 4525,
      "ç©Ĩ": 4526,
      "ider": 4527,
      "å·¦åı³": 4528,
      "ä¿Ħç¾ħæĸ¯": 4529,
      "èģ¯åĲĪ": 4530,
      "åįļçī©": 4531,
      "å§ĵ": 4532,
      "åį±éļª": 4533,
      "Ġmol": 4534,
      "éĺ²æŃ¢": 4535,
      "åľ¨æľªä¾Ĩ": 4536,
      "å±ħæ°ĳ": 4537,
      "äººå£«": 4538,
      "ä¸¹": 4539,
      "ãģ®": 4540,
      "çļĦæ¬Ĭ": 4541,
      "å¾Īå¥½": 4542,
      "ç±ĥ": 4543,
      "å¾Ģå¾Ģ": 4544,
      "é£Ľè¡Į": 4545,
      "ward": 4546,
      "å¿Ļ": 4547,
      "å°ĳæķ¸": 4548,
      "ç¹ŀ": 4549,
      "å¾ª": 4550,
      "æĻ¶": 4551,
      "çī©é«Ķ": 4552,
      "å®ĺæĸ¹": 4553,
      "An": 4554,
      "Ġbre": 4555,
      "çĩŁéĬ·": 4556,
      "å§Ķåĵ¡æľĥ": 4557,
      "é¡¯èĳĹ": 4558,
      "Ġproduct": 4559,
      "è½īæıĽçĤº": 4560,
      "å½¢è±¡": 4561,
      "ency": 4562,
      "sp": 4563,
      "æıĲä¾ĽçļĦ": 4564,
      "æĢĿæĥ³": 4565,
      "è½īåĮĸ": 4566,
      "Ġlight": 4567,
      "å°įæĩī": 4568,
      "æ¸Ľè¼ķ": 4569,
      "å¤ļæ¨£æĢ§": 4570,
      "Ġterm": 4571,
      "ä¿¡ä»»": 4572,
      "Ġdescri": 4573,
      "å¶": 4574,
      "ãĢįãĢĤ": 4575,
      "å®ľ": 4576,
      "ä»¥ä¸ĭå¹¾åĢĭ": 4577,
      "åĮħå®¹": 4578,
      "æ¼ı": 4579,
      "ç±¤": 4580,
      "ç°¡çŁŃ": 4581,
      "éĻĦè¿ĳ": 4582,
      "90": 4583,
      "Ch": 4584,
      "ring": 4585,
      "çĹĩçĭĢ": 4586,
      "____": 4587,
      "å®£ä½Ī": 4588,
      "éĽĨä¸Ń": 4589,
      "çļĦæĥ³": 4590,
      "side": 4591,
      "è±Ĳå¯ĮçļĦ": 4592,
      "olv": 4593,
      "Ġsur": 4594,
      "æıĲéĨĴ": 4595,
      "ç¾İå¥½çļĦ": 4596,
      "åıĬåħ¶": 4597,
      "ä¸Ģéļ»": 4598,
      "çĶŁç´ł": 4599,
      "ability": 4600,
      "Ġmulti": 4601,
      "èĮ²": 4602,
      "çĶ³è«ĭ": 4603,
      "èĸª": 4604,
      "åľ¨æŁĲäºĽ": 4605,
      "ç½°": 4606,
      "ffic": 4607,
      "ç¥ŀç¶ĵç¶²è·¯": 4608,
      "å¤§éĩıçļĦ": 4609,
      "ĠéĢļéģİ": 4610,
      "æĭĮ": 4611,
      "cept": 4612,
      "åħħåĪĨ": 4613,
      "åĦªç§Ģ": 4614,
      "éĲµè·¯": 4615,
      "ç¥ĸ": 4616,
      "ä¸īè§Ĵ": 4617,
      "irl": 4618,
      "cd": 4619,
      "çī¹èī²": 4620,
      "æİ¨åĩº": 4621,
      "ç·©è§£": 4622,
      "æŃ£å¸¸": 4623,
      "Ġext": 4624,
      "éłĺåŁŁçļĦ": 4625,
      "é©ħ": 4626,
      "ç²Ĵ": 4627,
      "Ġstruct": 4628,
      "stand": 4629,
      "Ġjust": 4630,
      "2021": 4631,
      "æĦŁåıĹåĪ°": 4632,
      "åĪ¶åº¦": 4633,
      "sq": 4634,
      "è³ĩæĸĻçļĦ": 4635,
      "èĳĹåĲįçļĦ": 4636,
      "æĸ¹éĿ¢çļĦ": 4637,
      "åį³ä½¿": 4638,
      "èŃīæĵļ": 4639,
      "é³´": 4640,
      "ä¹Ļ": 4641,
      "ä¼ĳæģ¯": 4642,
      "å¤ļåħĥ": 4643,
      "å¾Ĵ": 4644,
      "çĽ£ç®¡": 4645,
      "èģ·åł´": 4646,
      "çļĦé¢¨éļª": 4647,
      "æĪĸåħ¶ä»ĸ": 4648,
      "åĴĮè«§": 4649,
      "æĽ´å®¹æĺĵ": 4650,
      "è±¡å¾µ": 4651,
      "åºıåĪĹ": 4652,
      "è¦ıç¯Ħ": 4653,
      "æ»¿æĦı": 4654,
      "åĪĳ": 4655,
      "Ġstart": 4656,
      "åĳ³éģĵ": 4657,
      "Ġback": 4658,
      "åĬłä¸Ĭ": 4659,
      "çłĶçĻ¼": 4660,
      "æ¾³": 4661,
      "ä¸¦æıĲä¾Ľ": 4662,
      "äººçĶŁ": 4663,
      "åįĢå¡ĬéıĪ": 4664,
      "æ¸¸æ³³": 4665,
      "Ľåľį": 4666,
      "æīĺ": 4667,
      "çļĦæ±º": 4668,
      "ä¸Ĭåįĩ": 4669,
      "2022": 4670,
      "çļĦæºĸ": 4671,
      "çīĽå¥¶": 4672,
      "éģ·": 4673,
      "å¸ķ": 4674,
      "è²łéĿ¢å½±éŁ¿": 4675,
      "åĹ¯": 4676,
      "åĵģè³ª": 4677,
      "æ¥ļ": 4678,
      "çĬ¯ç½ª": 4679,
      "Ð»": 4680,
      "tern": 4681,
      "èĳ¡": 4682,
      "åŃ¸éĻ¢": 4683,
      "Ġless": 4684,
      "Ġox": 4685,
      "28": 4686,
      "ĠÃĹ": 4687,
      "æĥħç¯Ģ": 4688,
      "åĽŀæĨ¶": 4689,
      "æķ´æķ¸": 4690,
      "çļĦæħ": 4691,
      "ator": 4692,
      "å¤§å®¶": 4693,
      "rib": 4694,
      "å¿½": 4695,
      "Ġtemper": 4696,
      "éĢĻåı¯èĥ½": 4697,
      "å¤ļçļĦ": 4698,
      "ä½łéľĢè¦ģ": 4699,
      "Ġmole": 4700,
      "}$": 4701,
      "æĺ¯ä¸Ńåľĭ": 4702,
      "Ġreact": 4703,
      "æĤ¨éľĢè¦ģ": 4704,
      "Ġcontext": 4705,
      "ference": 4706,
      "æľīè¶£çļĦ": 4707,
      "çļĦæ¦Ĥ": 4708,
      "åĩºçīĪ": 4709,
      "ä¿¡ä»°": 4710,
      "ov": 4711,
      "è®ĬæĪĲ": 4712,
      "ificant": 4713,
      "air": 4714,
      "Ġsit": 4715,
      "æĪĲå°±": 4716,
      "éĩįè¦ĸ": 4717,
      "èľľ": 4718,
      "print": 4719,
      "æĽ¿ä»£": 4720,
      "å¥Ĺä»¶": 4721,
      "å°įçĴ°å¢ĥ": 4722,
      "è«ĸæĸĩ": 4723,
      "Ġdep": 4724,
      "åĽŀæĶ¶": 4725,
      "èģ·ä½į": 4726,
      "åĿĩåĭ»": 4727,
      "iqu": 4728,
      "Ġmust": 4729,
      "æĻĤéĸĵåĴĮ": 4730,
      "èİĬ": 4731,
      "Ġcurrent": 4732,
      "è¿«": 4733,
      "Ġforce": 4734,
      "ĠĠĠĠĠĠĠĠĠĠĠĠĠĠĠĠ": 4735,
      "lear": 4736,
      "åħ©ç¨®": 4737,
      "åĨįæ¬¡": 4738,
      "çļĦæīĭ": 4739,
      "ä¸¦æ²Ĵæľī": 4740,
      "æĪ¶å¤ĸ": 4741,
      "çļĦæķĻèĤ²": 4742,
      "å½¹": 4743,
      "**ãĢĤ": 4744,
      "è£Ŀé£¾": 4745,
      "Ġpot": 4746,
      "è«ĭæ±Ĥ": 4747,
      "åĦªé»ŀ": 4748,
      "æī®": 4749,
      "ives": 4750,
      "éħĴåºĹ": 4751,
      "çļĦæĸ°": 4752,
      "ages": 4753,
      "âĢ¦": 4754,
      "éĢĻå°ĩ": 4755,
      "ork": 4756,
      "198": 4757,
      "æºĸç¢ºåľ°": 4758,
      "port": 4759,
      "çī©ç¨®": 4760,
      "Ġlar": 4761,
      "Ġread": 4762,
      "æĻī": 4763,
      "äººåľ¨": 4764,
      "çļĦæº«": 4765,
      "äºĤ": 4766,
      "ins": 4767,
      "èª°": 4768,
      "åĪĨæŀĲåĴĮ": 4769,
      "çļĦæķ¸åŃĹ": 4770,
      "åĳĪçı¾": 4771,
      "æĻºæħ§å®¶å±ħ": 4772,
      "irt": 4773,
      "ĠçĦ¶å¾Į": 4774,
      "æ²ĥ": 4775,
      "åĶ¯ä¸Ģ": 4776,
      "èı²": 4777,
      "åĦªåħĪ": 4778,
      "Ġ:": 4779,
      "ç´¯": 4780,
      "atural": 4781,
      "æıļ": 4782,
      "ç´Ķ": 4783,
      "åı¯ä»¥è¢«": 4784,
      "åħ±äº«": 4785,
      "èĩ³éĹľ": 4786,
      "çļĦèĥ½åĬĽ": 4787,
      "ä½¿çĶ¨çļĦ": 4788,
      "åŃ¸æľĥ": 4789,
      "åįĹéĥ¨": 4790,
      "**ï¼Ī": 4791,
      "åĩ±": 4792,
      "æķ´åĲĪ": 4793,
      "èĽĭç³ķ": 4794,
      "éģµå¾ª": 4795,
      "çļĦç¸½": 4796,
      "æĤħ": 4797,
      "Ġredu": 4798,
      "å¤ļæķ¸": 4799,
      "Ġsupp": 4800,
      "çļĦåİŁåĽł": 4801,
      "Ġmuch": 4802,
      "èĤª": 4803,
      "ides": 4804,
      "éłĺåŁŁä¸Ń": 4805,
      "çĹħæ¯Ĵ": 4806,
      "èģĬå¤©": 4807,
      "éĤĦéľĢè¦ģ": 4808,
      "cho": 4809,
      "èĦĤèĤª": 4810,
      "çļĦçµĲæŀľ": 4811,
      "éĨ«éĻ¢": 4812,
      "resent": 4813,
      "æľīæķĪåľ°": 4814,
      "éģµå®Ī": 4815,
      "Ġeffect": 4816,
      "ĠCon": 4817,
      "æĶ¾åħ¥": 4818,
      "è¡ĽçĶŁ": 4819,
      "éģĵè·¯": 4820,
      "çļĦç¤¾æľĥ": 4821,
      "è§£æ±ºåķıé¡Į": 4822,
      "éĢĻåħ©åĢĭ": 4823,
      "åľ¨ä¸Ģèµ·": 4824,
      "ç§Ł": 4825,
      "åĨĬ": 4826,
      "ER": 4827,
      "ĠâĢĶ": 4828,
      "iew": 4829,
      "çļĦæĥħæ³ģä¸ĭ": 4830,
      "ç¸½æĺ¯": 4831,
      "ç¶ŃæĮģ": 4832,
      "olume": 4833,
      "åĲĪæ³ķ": 4834,
      "éģĭåĭķåĵ¡": 4835,
      "ined": 4836,
      "åħħå¥Ĺä»¶": 4837,
      "åı¯ä»¥æł¹æĵļ": 4838,
      "Ġhand": 4839,
      "åįļçī©é¤¨": 4840,
      "èµ«": 4841,
      "Ġcommon": 4842,
      "Ġoff": 4843,
      "è¬Ŀè¬Ŀ": 4844,
      "å¦Ļ": 4845,
      "ism": 4846,
      "å¤§ç´Ħ": 4847,
      "ç°½": 4848,
      "éĤ¦": 4849,
      "è¾£": 4850,
      "éĩĲ": 4851,
      "Ġdr": 4852,
      "æľĢæĸ°": 4853,
      "raph": 4854,
      "æ¼Ķåĵ¡": 4855,
      "æĪ´": 4856,
      "æĺİé¡¯": 4857,
      "æŃ£éĿ¢": 4858,
      "åľ°ä½į": 4859,
      "åħ·åĤĻ": 4860,
      "Ġå¦Ĥæŀľ": 4861,
      "ane": 4862,
      "Ġhr": 4863,
      "èĮĦ": 4864,
      "ied": 4865,
      "çļĦå¥½": 4866,
      "**ï¼Į": 4867,
      "é«Ķçı¾": 4868,
      "echn": 4869,
      "åĸľæŃ¡çļĦ": 4870,
      "MO": 4871,
      "here": 4872,
      "ä¸ĭåĪĹ": 4873,
      "Ġrun": 4874,
      "çĵ¶": 4875,
      "ym": 4876,
      "ense": 4877,
      "éģİæĸ¼": 4878,
      "çķ°å¸¸": 4879,
      "ä¼¼ä¹İ": 4880,
      "ä¸Ģèĩ´": 4881,
      "çĶ¢æ¥Ń": 4882,
      "éĢĻåĢĭåı¥åŃĲ": 4883,
      "Ġword": 4884,
      "èĹįèī²": 4885,
      "æıĲç¤º": 4886,
      "ĠCom": 4887,
      "Ġproblem": 4888,
      "äºĨä¸ĢäºĽ": 4889,
      "æ»ħ": 4890,
      "æĺŁæľŁ": 4891,
      "ĠUs": 4892,
      "ĠÃ": 4893,
      "æī¾åĩº": 4894,
      "èĩªåĭķé§ķé§Ľ": 4895,
      "è¿ħ": 4896,
      "æıĲä¾Ľä¸ĢäºĽ": 4897,
      "Ġpartic": 4898,
      "ç¨ĭå¼ıèªŀè¨Ģ": 4899,
      "åħ¨çĲĥè®Ĭæļĸ": 4900,
      "ä¹ĭå¤ĸ": 4901,
      "åļ´æł¼": 4902,
      "éĢĥ": 4903,
      "åĸ¬": 4904,
      "å¨ľ": 4905,
      "Ġlog": 4906,
      "è®Ĭå¾ĹæĽ´åĬł": 4907,
      "ger": 4908,
      "ç¨®é¡ŀ": 4909,
      "æĭĶ": 4910,
      "\"ï¼Į": 4911,
      "æīĢè¿°": 4912,
      "å¼·çĥĪ": 4913,
      "èĲĦ": 4914,
      "èĳ¡èĲĦ": 4915,
      "æľµ": 4916,
      "æ¶ĪéĻ¤": 4917,
      "Ġåħ¬éĩĮ": 4918,
      "ï¼ļ```": 4919,
      "numb": 4920,
      "éĭ¼": 4921,
      "å¤©ç©º": 4922,
      "rown": 4923,
      "é«Ķç³»": 4924,
      "æļ«": 4925,
      "éĽ»æ±ł": 4926,
      "å¸Ĥéİ®": 4927,
      "ually": 4928,
      "Ġassist": 4929,
      "35": 4930,
      "çļĦæŃ·åı²": 4931,
      "Ġlead": 4932,
      "äºĶåĢĭ": 4933,
      "çĽ£çĿ£": 4934,
      "åĮĸåĴĮ": 4935,
      "è´ı": 4936,
      "Ġfin": 4937,
      "è¡¨æ¼Ķ": 4938,
      "æĻļä¸Ĭ": 4939,
      "éļĨ": 4940,
      "ä¸įè¶³": 4941,
      "çļĦæĭ": 4942,
      "çĶŁæ´»æĸ¹å¼ı": 4943,
      "Ġagain": 4944,
      "ç§Ĵ": 4945,
      "ä¾¿åĪ©": 4946,
      "å¯¦éļĽä¸Ĭ": 4947,
      "Ġafter": 4948,
      "John": 4949,
      "ç¯Ģå¥ı": 4950,
      "çļĦæĢ§": 4951,
      "Ġformula": 4952,
      "ä¸ĢçµĦ": 4953,
      "é¯": 4954,
      "æĸĩä»¶": 4955,
      "ĠHere": 4956,
      "è¾¦åħ¬": 4957,
      "è£ģ": 4958,
      "çĶ·åŃĲ": 4959,
      "Ġoptions": 4960,
      "æīĭæ®µ": 4961,
      "åĨłè»į": 4962,
      "ç¾½": 4963,
      "ç¶ľä¸Ĭ": 4964,
      "åıĸä»£": 4965,
      "36": 4966,
      "pro": 4967,
      "éĿĪæĦŁ": 4968,
      "ä¾Ľæĩī": 4969,
      "èĭĹ": 4970,
      "çĥ¹": 4971,
      "æľīåĵªäºĽ": 4972,
      "Ġcell": 4973,
      "èĢģå¸«": 4974,
      "å¿ł": 4975,
      "åľ¨ä¸ĢåĢĭ": 4976,
      "vert": 4977,
      "ĠQ": 4978,
      "iginal": 4979,
      "å¤¢æĥ³": 4980,
      "Ġcharact": 4981,
      "åŃĹåħĥ": 4982,
      "irc": 4983,
      "Ġarr": 4984,
      "Ġgu": 4985,
      "ĠØ": 4986,
      "Th": 4987,
      "Ġtask": 4988,
      "è¨Ĭæģ¯": 4989,
      "è·¯å¾ĳ": 4990,
      "æĬ«": 4991,
      "æĺĵæĸ¼": 4992,
      "çī¹æĢ§": 4993,
      "è¢«ç¨±çĤº": 4994,
      "ade": 4995,
      "é¼ł": 4996,
      "é»ĳæ´ŀ": 4997,
      "å¥®": 4998,
      "è®ļ": 4999,
      "åħįçĸ«": 5000,
      "æĹĹ": 5001,
      "é£ŁæĿĲ": 5002,
      "åģ¥åº·é£²é£Ł": 5003,
      "'m": 5004,
      "æĻ®éģį": 5005,
      "ars": 5006,
      "ech": 5007,
      "éģĭç®Ĺ": 5008,
      "åĴĮå®īåħ¨": 5009,
      "Ġpress": 5010,
      "æĶĿåħ¥": 5011,
      ")**": 5012,
      "ton": 5013,
      "Ġfence": 5014,
      "ç·£": 5015,
      "æľīçļĦ": 5016,
      "Ġ80": 5017,
      "ma": 5018,
      "çļĦæ®": 5019,
      "ä½łèªįçĤº": 5020,
      "Ġday": 5021,
      "Ġnatural": 5022,
      "Ġref": 5023,
      "è·¯ç·ļ": 5024,
      "èªŀéŁ³èŃĺåĪ¥": 5025,
      "çļĦéģİç¨ĭ": 5026,
      "è£Ĥ": 5027,
      "æĦıæĢĿ": 5028,
      "Ġmaybe": 5029,
      "éĸĥ": 5030,
      "ä¿Ŀéļª": 5031,
      "ä»Ģéº¼æĺ¯": 5032,
      "Ġend": 5033,
      "åª½": 5034,
      "åģ¥åº·çļĦ": 5035,
      "åŃ¸è¡ĵ": 5036,
      "è«ĭåĳĬè¨´æĪĳ": 5037,
      "æī®æ¼Ķ": 5038,
      "æŃ»äº¡": 5039,
      "('": 5040,
      "\"\"": 5041,
      "ĠCl": 5042,
      "å·§åħĭ": 5043,
      "ror": 5044,
      "If": 5045,
      "ãĢĭï¼Ī": 5046,
      "æĮĩä»¤": 5047,
      "Ġname": 5048,
      "åĤ³éģŀ": 5049,
      "æİ¥è§¸": 5050,
      "Ġchild": 5051,
      "æĪ¿éĸĵ": 5052,
      "åĨĴéļª": 5053,
      "di": 5054,
      "åŀĭåĪ¥çļĦ": 5055,
      "for": 5056,
      "äºĭçī©": 5057,
      "åīįæĻ¯": 5058,
      "ĠâĢ¢ãĢĬ": 5059,
      "æĻ®åıĬ": 5060,
      "éļľç¤Ļ": 5061,
      "Ġdetermine": 5062,
      "oid": 5063,
      "åīĩæĺ¯": 5064,
      "é£²æĸĻ": 5065,
      "æĵ´åħħå¥Ĺä»¶": 5066,
      "åĴĮæ²»çĻĤ": 5067,
      "åĬłå¯Ĩ": 5068,
      "åĲĪçī©": 5069,
      "ç³¾": 5070,
      "æĸ°é®®": 5071,
      "ä¸ŃæıĲåıĸåĩº": 5072,
      "ather": 5073,
      "ĠHe": 5074,
      "è©¢åķı": 5075,
      "éŃĶæ³ķ": 5076,
      "èĭ¦": 5077,
      "ä»ģ": 5078,
      "ä¸ĭéĻį": 5079,
      "æĬ±": 5080,
      "èĩªçĦ¶çļĦ": 5081,
      "éĩĭæĶ¾": 5082,
      "å¤±åİ»": 5083,
      "Ġ==": 5084,
      "åı¦ä¸Ģ": 5085,
      "çĵľ": 5086,
      "çļĦåŁºæľ¬": 5087,
      "ets": 5088,
      "\":": 5089,
      "ew": 5090,
      "Ġgl": 5091,
      "åįĶä½ľ": 5092,
      "äººåĲį": 5093,
      "è³ĩæĸĻéĽĨ": 5094,
      "èºį": 5095,
      "çļĦåŁºç¤İ": 5096,
      "æ¡Į": 5097,
      "ization": 5098,
      "çĽ£æİ§": 5099,
      "åĴĮæĶ¯æı´": 5100,
      "Java": 5101,
      "èĪĩåħ¶ä»ĸ": 5102,
      "è¦ıå¾ĭ": 5103,
      "mat": 5104,
      "æķ¸æĵļ": 5105,
      "éļ¨æĻĤ": 5106,
      "å¾ħéģĩ": 5107,
      "å¿ħè¦ģçļĦ": 5108,
      "Ðº": 5109,
      "Ġsom": 5110,
      "åĮ¯": 5111,
      "çªģçĦ¶": 5112,
      "è¶³å¤łçļĦ": 5113,
      "è²§": 5114,
      "ä¿ĿèŃ·çĴ°å¢ĥ": 5115,
      "æĽ¸ç±į": 5116,
      "Ġmeans": 5117,
      "èĮ¨": 5118,
      "éī": 5119,
      "ä¾Ĩå¯¦çı¾": 5120,
      "Ġ$\\": 5121,
      "Ġhere": 5122,
      "åį°åº¦": 5123,
      "Ġsmall": 5124,
      "}_": 5125,
      "æĪĢ": 5126,
      "å·²çŁ¥": 5127,
      "Ġmethod": 5128,
      "Ġ28": 5129,
      "éĩĲç±³": 5130,
      "Ġtoget": 5131,
      "äººå·¥æĻºæħ§åľ¨éĨ«çĻĤ": 5132,
      "Ġtogether": 5133,
      "åĴĮçĻ¼å±ķ": 5134,
      "çļĦæĵ": 5135,
      "Ġinst": 5136,
      "äºŀæ´²": 5137,
      "ĠNow": 5138,
      "çļĦæ¨¡": 5139,
      "åŃĶ": 5140,
      "itions": 5141,
      "æ½®": 5142,
      "ä½ľçĤºä¸ĢåĢĭ": 5143,
      "ä»ĭéĿ¢": 5144,
      "æķĪçİĩåĴĮ": 5145,
      "Ġphys": 5146,
      "æīĢåľ¨": 5147,
      "åĥ±": 5148,
      "æĬµ": 5149,
      "éĻ¤ä»¥": 5150,
      "Ġstud": 5151,
      "ral": 5152,
      "Ġanother": 5153,
      "éĤĦèĥ½": 5154,
      "Ġsolution": 5155,
      "Ñĥ": 5156,
      "ĠX": 5157,
      "æľ±": 5158,
      "äºĭæ¥Ń": 5159,
      "æĻ®éĢļ": 5160,
      "èĴ¸": 5161,
      "Ġthree": 5162,
      "andom": 5163,
      "åĽĽåĢĭ": 5164,
      "çģ½å®³": 5165,
      "Ġsignificant": 5166,
      "è³¦": 5167,
      "Ġinclud": 5168,
      "èĢĮéĿŀ": 5169,
      "å¯¦é«Ķ": 5170,
      "els": 5171,
      "éĽ»è©±": 5172,
      "éĢļå¸¸æľĥ": 5173,
      "åĲ«æľī": 5174,
      "ç¾ħé¦¬": 5175,
      "ä¸įåĥħåĥħ": 5176,
      "å®¤åħ§": 5177,
      "æ¶Īè²»èĢħ": 5178,
      "çļĦæĻĤ": 5179,
      "éĤĢ": 5180,
      "éĽĨåľĺ": 5181,
      "èŀ¢": 5182,
      "èŀįåĲĪ": 5183,
      "ĠæŃ²": 5184,
      "çļĦæ£": 5185,
      "ey": 5186,
      "ĠTo": 5187,
      "Ġgirl": 5188,
      "Ġwere": 5189,
      "ç¶ľä¸ĬæīĢè¿°": 5190,
      "Ġinput": 5191,
      "éĻ·": 5192,
      "ä»ĸåĢĳåı¯èĥ½": 5193,
      "çĬ¬": 5194,
      "ç¢İ": 5195,
      "èªŀåı¥": 5196,
      "ç§ĳå¹»": 5197,
      "ç¢ºä¿ĿåĽŀçŃĶ": 5198,
      "åĨįçĶŁ": 5199,
      "æ©Ļ": 5200,
      "Ġoutput": 5201,
      "Ġmoving": 5202,
      "ret": 5203,
      "èī¦": 5204,
      "æ¶µèĵĭ": 5205,
      "è©±é¡Į": 5206,
      "very": 5207,
      "å¤§æ°£": 5208,
      "ody": 5209,
      "çļĦæ½": 5210,
      "å¯¦çĶ¨": 5211,
      "ä»¥ä¸ĭæĺ¯ä¸Ģ": 5212,
      "åľĸæĽ¸": 5213,
      "duct": 5214,
      "äººå·¥æĻºæħ§åľ¨": 5215,
      "Ġrange": 5216,
      "ä¸ĬéĿ¢": 5217,
      "æĸ¯çī¹": 5218,
      "éºµåĮħ": 5219,
      "read": 5220,
      "ences": 5221,
      "ric": 5222,
      "å¬": 5223,
      "Ġprogram": 5224,
      "Ġorder": 5225,
      "å¯Ĩç¢¼": 5226,
      "çĮ¶": 5227,
      "æ®ĸ": 5228,
      "éĨ«çĻĤä¿Ŀåģ¥": 5229,
      "Ġpass": 5230,
      "ç´«": 5231,
      "åıįæĺł": 5232,
      "Ġconstant": 5233,
      "ale": 5234,
      "çļĦæ³ķå¾ĭ": 5235,
      "cdot": 5236,
      "ĠÎ": 5237,
      "Ġ45": 5238,
      "å¹«åĬ©ä½ł": 5239,
      "æĽ¾ç¶ĵ": 5240,
      "èĩªä¸»": 5241,
      "çļĦéĹľä¿Ĥ": 5242,
      "å¾ĹåĪ°äºĨ": 5243,
      "ç¶ŃçĶŁç´ł": 5244,
      "åı¯èĥ½æĢ§": 5245,
      "æ§ĭæĪĲ": 5246,
      "çļĦæ¦Ĥå¿µ": 5247,
      "éħįç½®": 5248,
      "the": 5249,
      "æĪª": 5250,
      "è²Į": 5251,
      "åħ¬éĸĭ": 5252,
      "èİİ": 5253,
      "éĢĻé¦ĸ": 5254,
      "çĲ´": 5255,
      "Ġ21": 5256,
      "åı¯èĥ½æľī": 5257,
      "æĴ°": 5258,
      "ç²¾ç¢º": 5259,
      "ä¸Ģå¤©": 5260,
      "ä¼º": 5261,
      "éŁ¿æĩī": 5262,
      "åĤ³éģĶ": 5263,
      "ä½ľæ¥Ń": 5264,
      "æĮĩæ¨Ļ": 5265,
      "éĤ£è£¡": 5266,
      "ä¸įéľĢè¦ģ": 5267,
      "è±¬": 5268,
      "çŁ©": 5269,
      "ivity": 5270,
      "å¥Ī": 5271,
      "éĽ¢éĸĭ": 5272,
      "æ¬£è³ŀ": 5273,
      "å®¿": 5274,
      "è²¿": 5275,
      "åħ§å¿ĥ": 5276,
      "å¤±æķĹ": 5277,
      "Ġ22": 5278,
      "çļĦæºĸç¢º": 5279,
      "ä¸¦å°ĩ": 5280,
      "æĺ¯ä¸Ģä½į": 5281,
      "åĴĮæĮĳæĪ°": 5282,
      "å½¢çļĦ": 5283,
      "ç²¾æºĸ": 5284,
      "åĤ·å®³": 5285,
      "\"ãĢĤ": 5286,
      "åĢĭé«Ķ": 5287,
      "ï¼ŁâĢĿ": 5288,
      "æ®ĺ": 5289,
      "çļĦæıı": 5290,
      "ä¼ºæľį": 5291,
      "day": 5292,
      "èĩŁ": 5293,
      "åĩºäºĨ": 5294,
      "æľĢå°ı": 5295,
      "æĦĽå¥½": 5296,
      "æĩĤ": 5297,
      "æ¦Ĥæĭ¬": 5298,
      "è³ĩæĸĻåº«": 5299,
      "çķªèĮĦ": 5300,
      "æľĪçĲĥ": 5301,
      "å°Īå®¶": 5302,
      "éģĭçĩŁ": 5303,
      "èªįçľŁæĢĿèĢĥ": 5304,
      ")ï¼Į": 5305,
      "ze": 5306,
      "ä¼ºæľįåĻ¨": 5307,
      "æĪĳèªįçĤº": 5308,
      "Ġbased": 5309,
      "ĠSentence": 5310,
      "æµªè²»": 5311,
      "è©ŀèªŀ": 5312,
      "å·¨å¤§": 5313,
      "Ġrequire": 5314,
      "Ġtemperature": 5315,
      "CT": 5316,
      "éĽŀèĽĭ": 5317,
      "300": 5318,
      "ä½©": 5319,
      "velop": 5320,
      "å°¤åħ¶æĺ¯": 5321,
      "åŃ¤çį¨": 5322,
      "pen": 5323,
      "utes": 5324,
      "åħ±æľī": 5325,
      "èĪīè¾¦": 5326,
      "Ġanal": 5327,
      "éĥ¡": 5328,
      "å¼Ł": 5329,
      "éĩįå¯«": 5330,
      "æºĸç¢ºçļĦ": 5331,
      "çļĦæıĲ": 5332,
      "LE": 5333,
      "åĲ³": 5334,
      "Ġperform": 5335,
      "é¡įå¤ĸ": 5336,
      "py": 5337,
      "æıĴ": 5338,
      "çŃīå¾ħ": 5339,
      "ends": 5340,
      "åįĶèŃ°": 5341,
      "çļĦæĦıæĢĿ": 5342,
      "ï¼ļãĢĬ": 5343,
      "å¤§åŀĭ": 5344,
      "åĬłéĢŁ": 5345,
      "ç¼ºé»ŀ": 5346,
      "å·§åħĭåĬĽ": 5347,
      "ä¸Ģæ¬¾": 5348,
      "äººæķ¸": 5349,
      "Ġred": 5350,
      "é¡§å®¢": 5351,
      "Given": 5352,
      "rite": 5353,
      "Ġcond": 5354,
      "åĵªè£¡": 5355,
      "éģ©çķ¶çļĦ": 5356,
      "ĠéĤĦè¦ģ": 5357,
      "çĶ¢çĶŁäºĨ": 5358,
      "éĢĻéĥ¨éĽ»å½±": 5359,
      "èħ³è¸ı": 5360,
      "åī²": 5361,
      "ough": 5362,
      "éĩĳå±¬": 5363,
      "éĢ±æľŁ": 5364,
      "çļĦæĳ": 5365,
      "æĦŁæŁĵ": 5366,
      "Ġcho": 5367,
      "çĤ®": 5368,
      "éĢ²å±ķ": 5369,
      "ĠRe": 5370,
      "èľĤ": 5371,
      "åľ°çļĦ": 5372,
      "ident": 5373,
      "éģĭè¼¸": 5374,
      "gg": 5375,
      "åĪ°éģĶ": 5376,
      "ä½Ĩä¸į": 5377,
      "äººæ°ĳåħ±åĴĮåľĭ": 5378,
      "ats": 5379,
      "å¾ĹåĩºçŃĶæ¡Ī": 5380,
      "é»ĥèī²": 5381,
      "å¤§éĻ¸": 5382,
      "ï¼ļâĢ¢": 5383,
      "atch": 5384,
      "èĩªä¿¡": 5385,
      "Ġexper": 5386,
      "çļĦæĥ³æ³ķ": 5387,
      "ä¸ĢåĢĭäºº": 5388,
      "de": 5389,
      "æĺ¯éĿŀå¸¸": 5390,
      "æľŁå¾ħ": 5391,
      "æ¶ĪèĢĹ": 5392,
      "éŀĭ": 5393,
      "ä¿ĿçķĻ": 5394,
      "æıĲåĪ°äºĨ": 5395,
      "çģ°": 5396,
      "æŁĲç¨®": 5397,
      "åįģåĪĨ": 5398,
      "éģ©çĶ¨æĸ¼": 5399,
      "çĪŃèŃ°": 5400,
      "ner": 5401,
      "æĶª": 5402,
      "èģ°": 5403,
      "åıªèĥ½": 5404,
      "çµ¦åĩºä½łçļĦ": 5405,
      "æķ´é«Ķ": 5406,
      "çŃīæĸ¹å¼ı": 5407,
      "äºĭéłħ": 5408,
      "ello": 5409,
      "Ġequation": 5410,
      "çļĦåŃ¸ç¿Ĵ": 5411,
      "çŃīåķıé¡Į": 5412,
      "éģ¸èĪī": 5413,
      "ĠThey": 5414,
      "éĢ£çºĮ": 5415,
      "æ¾¤": 5416,
      "éĤĬçķĮ": 5417,
      "âģ": 5418,
      "çļĦæĶ¯æı´": 5419,
      "æĺ¯å¤ļå°ĳ": 5420,
      "åı¯ä»¥æıĲé«ĺ": 5421,
      "æĸĩç«łä¸Ń": 5422,
      "çĦ¶å¾Įå¾ĹåĩºçŃĶæ¡Ī": 5423,
      "Ġdisc": 5424,
      "xim": 5425,
      "Ġoption": 5426,
      "è«¸": 5427,
      "æĨĤ": 5428,
      "çļĦæĶ¿": 5429,
      "Ġgroup": 5430,
      "çļĦéŁ³æ¨Ĥ": 5431,
      "arm": 5432,
      "æ¡ĥ": 5433,
      "å°įæĸ¼ä¸ĭéĿ¢çļĦåķıé¡Į": 5434,
      "èī¯å¥½": 5435,
      "å¥³æĢ§åľ¨": 5436,
      "ST": 5437,
      "éľį": 5438,
      "è³ĩéĩĳ": 5439,
      "é«Ķéĩį": 5440,
      "Ġstill": 5441,
      "çī¹åĪ¥æĺ¯": 5442,
      "è»¸": 5443,
      "26": 5444,
      "ä¼¸": 5445,
      "åł´æīĢ": 5446,
      "åĺī": 5447,
      "Ex": 5448,
      "è¥¿çıŃ": 5449,
      "è½Ħ": 5450,
      "èĢĥæħ®åĪ°": 5451,
      "è¥¿çıŃçīĻ": 5452,
      "Ġnec": 5453,
      "åģıå¥½": 5454,
      "QL": 5455,
      "Ġcent": 5456,
      "åīª": 5457,
      "æµ®": 5458,
      "ä»¥ä¸ĭæĺ¯ä¸ĢåĢĭ": 5459,
      "æİĴåĪĹ": 5460,
      "åı¯ä»¥æĺ¯": 5461,
      "å¹´ä¾Ĩ": 5462,
      "åħ¼": 5463,
      "Ġwithout": 5464,
      "è»įäºĭ": 5465,
      "å¤ªéĻ½èĥ½": 5466,
      "78": 5467,
      "ible": 5468,
      "åľ°éĲµ": 5469,
      "æ·¡": 5470,
      "gan": 5471,
      "Ġtechn": 5472,
      "çŁ¥åĲį": 5473,
      "éĿŀå¸¸éĩįè¦ģ": 5474,
      "åı£èªŀ": 5475,
      "éĦ°": 5476,
      "èħ³è¸ıè»Ĭ": 5477,
      "33": 5478,
      "åĮ¹éħį": 5479,
      "å½¼æŃ¤": 5480,
      "éĩįéĩı": 5481,
      "é½Ĭ": 5482,
      "ails": 5483,
      "ç¾İéºĹçļĦ": 5484,
      "åŃ«": 5485,
      "é£ª": 5486,
      "çĥ¹é£ª": 5487,
      "Ġart": 5488,
      "éĿ©åĳ½": 5489,
      "Ġpressure": 5490,
      "æĪĳå¾Ī": 5491,
      "å¯Ĵ": 5492,
      "æĽĨ": 5493,
      "ç¾Ĭ": 5494,
      "éĻ°": 5495,
      "éłĺåŁŁçļĦæĩīçĶ¨": 5496,
      "ç©įæ¥µçļĦ": 5497,
      "SO": 5498,
      "ä¹ĭåīįçļĦ": 5499,
      "çļĦæ¯ı": 5500,
      "sqrt": 5501,
      "ãĢĤãĢĬ": 5502,
      "éĢĻæĦıåĳ³èĳĹ": 5503,
      "åį°è±¡": 5504,
      "èĤº": 5505,
      "Ġchange": 5506,
      "äºĨè¨±å¤ļ": 5507,
      "æ°£æº«": 5508,
      "ç¬¬äºĮåĢĭ": 5509,
      "çļĦæµģ": 5510,
      "ames": 5511,
      "Ġtry": 5512,
      "æİĽ": 5513,
      "æıĲä¾Ľä¸ĢåĢĭ": 5514,
      "ĠWait": 5515,
      "01": 5516,
      "åħĶ": 5517,
      "çļĦæĽ¸": 5518,
      "æĶªæĭĮ": 5519,
      "èĸĦ": 5520,
      "å°įè©±åħ§å®¹": 5521,
      "sc": 5522,
      "ĠĠĠĠĠĠĠ": 5523,
      "æĽ¿æıĽ": 5524,
      "Ġold": 5525,
      "ç¾İçļĦ": 5526,
      "Ġeven": 5527,
      "log": 5528,
      "åķĬ": 5529,
      "rans": 5530,
      "åĩºçļĦ": 5531,
      "æ¯ıæ¬¡": 5532,
      "any": 5533,
      "Ġmon": 5534,
      "åģī": 5535,
      "TC": 5536,
      "by": 5537,
      "ĠåĲį": 5538,
      "Ġjum": 5539,
      "çļ®èĨļ": 5540,
      "æ´¥": 5541,
      "ided": 5542,
      "Ġav": 5543,
      "é£ŁçĶ¨": 5544,
      "GP": 5545,
      "Ġ36": 5546,
      "çĶŁæĪĲä¸Ģé¦ĸ": 5547,
      "Ġfil": 5548,
      "tle": 5549,
      "çļĦåģ¥åº·": 5550,
      "ä¸Ģç³»åĪĹ": 5551,
      "ä½łåĢĳ": 5552,
      "Ġ23": 5553,
      "åĤ¢": 5554,
      "è«ĭçµ¦åĩºä½łçļĦæİ¨çĲĨéģİç¨ĭ": 5555,
      "èħ¿": 5556,
      "ples": 5557,
      "åľŁåľ°": 5558,
      "ĠĠĠĠĠĠ": 5559,
      "å®ĥæĺ¯": 5560,
      "æİ¨çĲĨ": 5561,
      "æ·±éģł": 5562,
      "ced": 5563,
      "èĢ¶": 5564,
      "æĪĳåĢĳå°ĩ": 5565,
      "ä¸»è§Ĵ": 5566,
      "å±ķéĸĭ": 5567,
      "æīĢæľīçļĦ": 5568,
      "Ġdoesn": 5569,
      "éķ·çļĦ": 5570,
      "Ġmultiple": 5571,
      "Ġline": 5572,
      "MOSS": 5573,
      "Ġë": 5574,
      "åľ¨å®¶": 5575,
      "æĺ¨": 5576,
      "èĥ½åĲ¦": 5577,
      "æĭĵ": 5578,
      "èĺĩèģ¯": 5579,
      "æ¥Ĭ": 5580,
      "ç´Ģå¿µ": 5581,
      "èĩī": 5582,
      "å¥ª": 5583,
      "çĽ¾": 5584,
      "è²¸": 5585,
      "æİ¡åıĸæİªæĸ½": 5586,
      "ä¸Ģå¹´": 5587,
      "arr": 5588,
      "Ġmagn": 5589,
      "Ġdue": 5590,
      "Ġbeing": 5591,
      "é§Ĳ": 5592,
      "ĠåĽłæŃ¤": 5593,
      "æĸĩæĺİ": 5594,
      "æ¡Īä¾ĭ": 5595,
      "ows": 5596,
      "ç¯Ģç´Ħ": 5597,
      "åĦĺåı¯èĥ½": 5598,
      "alse": 5599,
      "Ġ198": 5600,
      "çļĦæ²»": 5601,
      "çļĦçĨ±": 5602,
      "Ġtest": 5603,
      "å¦ĤæŃ¤": 5604,
      "æ·ĭ": 5605,
      "ĠçĤº": 5606,
      "åŃ¸å®¶": 5607,
      "å¿ĥæĥħ": 5608,
      "çºĸ": 5609,
      "çļĦæ½Ľ": 5610,
      "We": 5611,
      "ĠæĻĤ": 5612,
      "requ": 5613,
      "çĽ®çļĦåľ°": 5614,
      "åİŁåŃĲ": 5615,
      "å©¦": 5616,
      "ç£ģ": 5617,
      "ĠèĻŁç·ļ": 5618,
      "ä¿Ĺ": 5619,
      "åľ°éľĩ": 5620,
      "éĿŀæ´²": 5621,
      "åľ°åįĢçļĦ": 5622,
      "çľĭæ³ķ": 5623,
      "çļĦæĬĢèĥ½": 5624,
      "åĨ¬åŃ£": 5625,
      "æľĥå°İèĩ´": 5626,
      "åħ¶ä¸ŃçļĦ": 5627,
      "æ¢°": 5628,
      "Ġblack": 5629,
      "Ġblue": 5630,
      "çļĦä¸Ģç¨®": 5631,
      "åĴĮæĩīçĶ¨": 5632,
      "ital": 5633,
      "ä¸ĭåįĪ": 5634,
      "åĭķçķ«": 5635,
      "äºĭæķħ": 5636,
      "æīĭè¡ĵ": 5637,
      "è¡¨éģĶäºĨ": 5638,
      "ML": 5639,
      "pi": 5640,
      "ĠåĪĨ": 5641,
      "Ġå¹³æĸ¹": 5642,
      "çļĦæ¥": 5643,
      "ä¼Ĳ": 5644,
      "çļĦæĦıç¾©": 5645,
      "Ġfig": 5646,
      "Ġ27": 5647,
      "2019": 5648,
      "éĺ¿çĪ¾": 5649,
      "ç·ĬæĢ¥": 5650,
      "çķ¢æ¥Ń": 5651,
      "Al": 5652,
      "è«ĭä¸ĢæŃ¥ä¸ĢæŃ¥": 5653,
      "çĲĥéļĬ": 5654,
      "ull": 5655,
      "Ġalone": 5656,
      "å¤ªéĻ½ç³»": 5657,
      "è¿ħéĢŁ": 5658,
      "Ġair": 5659,
      "Ġoften": 5660,
      "æĺŁçĲĥ": 5661,
      "çļĦä¸į": 5662,
      "æĻ¨": 5663,
      "è¢«èªįçĤºæĺ¯": 5664,
      "æ°«": 5665,
      "ä½ľå®¶": 5666,
      "string": 5667,
      "ience": 5668,
      "Ġsa": 5669,
      "æ¸¬éĩı": 5670,
      "èħĲ": 5671,
      "èİĵ": 5672,
      "åı¯ä»¥çĤº": 5673,
      "Ġatt": 5674,
      "å¸Ŀåľĭ": 5675,
      "Ġmus": 5676,
      "ife": 5677,
      "çļĦéģ¸æĵĩ": 5678,
      "alth": 5679,
      "æľĢå¥½": 5680,
      "æľ¬æĸĩ": 5681,
      "ä¸»åĭķ": 5682,
      "çĭĹçĭĹ": 5683,
      "ydro": 5684,
      "32": 5685,
      "Ġste": 5686,
      "Ġproper": 5687,
      "çŁŃæĸĩ": 5688,
      "ç¯Ħåľįåħ§": 5689,
      "æķ¢": 5690,
      "Ġduring": 5691,
      "åħĭæĸ¯": 5692,
      "Can": 5693,
      "ĠÙ": 5694,
      "Ġä¸Ń": 5695,
      "ç´Ľ": 5696,
      "æĬĳ": 5697,
      "Ġconf": 5698,
      "èª¿ç¯Ģ": 5699,
      "ĠThat": 5700,
      "éĤĢè«ĭ": 5701,
      "æĪĲç¸¾": 5702,
      "å£¯": 5703,
      "è©¦åľĸ": 5704,
      "Ġquant": 5705,
      "çļĦæİªæĸ½": 5706,
      "èĤĮèĤī": 5707,
      "çļĦè®ĬåĮĸ": 5708,
      "Ġcap": 5709,
      "åı¯ä»¥çĶ¨æĸ¼": 5710,
      "Ġway": 5711,
      "æķĻåŃ¸": 5712,
      "ä¿®å¾©": 5713,
      "æľªçŁ¥": 5714,
      "åĤ¾åĲĳ": 5715,
      "çļĦé£Łçī©": 5716,
      "èĴľ": 5717,
      "æĭľ": 5718,
      "ä¸ĸçķĮä¸ĬæľĢ": 5719,
      "ness": 5720,
      "çĻ¼è¡Į": 5721,
      "Ġå¹´ä»£": 5722,
      "ç¯Ģé»ŀ": 5723,
      "':": 5724,
      "åĵº": 5725,
      "Ġ26": 5726,
      "é£Ľæ©Ł": 5727,
      "åĤ¢ä¿±": 5728,
      "çļĦèªŀè¨Ģ": 5729,
      "çļĦçµĲæ§ĭ": 5730,
      "èĤ¡ç¥¨": 5731,
      "åĪª": 5732,
      "è®ĵä½ł": 5733,
      "éĻ³è¿°": 5734,
      "],": 5735,
      "æĥ³æ³ķ": 5736,
      "çĽĥ": 5737,
      "æĪ°é¬¥": 5738,
      "åĳ¼åı«": 5739,
      "ìĿ": 5740,
      "Ġcor": 5741,
      "Ġocc": 5742,
      "èº«å¿ĥ": 5743,
      "ĠTherefore": 5744,
      "çļĦçĽ®æ¨Ļ": 5745,
      "ä¸Ģå®¶": 5746,
      "ç¨®æ¤į": 5747,
      "ï¼į": 5748,
      "æĸľ": 5749,
      "å¤§å¤ļæķ¸": 5750,
      "å¢¨": 5751,
      "è«ĭä½ł": 5752,
      "éħ¶": 5753,
      "åĴĮå¹³": 5754,
      "æķµ": 5755,
      "åŃ¸èĢħ": 5756,
      "ä½¿çĶ¨äºĨ": 5757,
      "ement": 5758,
      "çľŁçļĦ": 5759,
      "ĠOption": 5760,
      "Ġatoms": 5761,
      "å°Īè¼¯": 5762,
      "åľŁå£¤": 5763,
      "Ġpotential": 5764,
      "arch": 5765,
      "é«ĺèĪĪ": 5766,
      "æ¨Ļç±¤": 5767,
      "Ġchang": 5768,
      "ç¿»èŃ¯æĪĲä¸Ńæĸĩ": 5769,
      "Ġwalking": 5770,
      "ĠéĢĻåĢĭ": 5771,
      "æĵİ": 5772,
      "è¬Ĥ": 5773,
      "å»ļ": 5774,
      "ĠUn": 5775,
      "è¡¨çı¾åĩº": 5776,
      "çĦ¡è«ĸæĺ¯": 5777,
      "çļĦæ®µ": 5778,
      "par": 5779,
      "âĢĿï¼Ī": 5780,
      "éĢ²è¡ĮåĪĨé¡ŀ": 5781,
      "Ġlit": 5782,
      "å®ļä½į": 5783,
      "åĵģç¨®": 5784,
      "ustom": 5785,
      "æĭĽèģĺ": 5786,
      "Ġboat": 5787,
      "Ġstructure": 5788,
      "çļĦå¤©æ°£": 5789,
      "Ġdays": 5790,
      "åĽŀæĩī": 5791,
      "çĦ¡äºº": 5792,
      "atic": 5793,
      "Ġmen": 5794,
      "å¼ķæĵİ": 5795,
      "^{-": 5796,
      "éģķåıį": 5797,
      "AR": 5798,
      "Ġhum": 5799,
      "æĦĽçļĦ": 5800,
      "æ¿ĢçĻ¼": 5801,
      "æ«": 5802,
      "çļĦæĸĩæľ¬": 5803,
      "å°įäººé¡ŀ": 5804,
      "ç«¹": 5805,
      "ĠPos": 5806,
      "å¥³åŃ©": 5807,
      "çļĦæĬķ": 5808,
      "éĥ½èĥ½": 5809,
      "çĦ¡éĻĲ": 5810,
      "å·¨å¤§çļĦ": 5811,
      "æĬ«èĸ©": 5812,
      "çĶŁæĹ¥": 5813,
      "Ġmed": 5814,
      "å¾ĭå¸«": 5815,
      "èĥ½åĬĽåĴĮ": 5816,
      "åįģå¹´": 5817,
      "ä»Ļ": 5818,
      "æľĢå¤§çļĦ": 5819,
      "ä¹ŁéľĢè¦ģ": 5820,
      "åıįå°į": 5821,
      "æĬķåħ¥": 5822,
      "åįĶåĬ©": 5823,
      "å¤§æķ¸æĵļ": 5824,
      "çĽ¸åıį": 5825,
      "çļĦçłĶç©¶": 5826,
      "ä»¥ä¾Ĩ": 5827,
      "Ph": 5828,
      "You": 5829,
      "åľ¨éĢĻ": 5830,
      "æ¿¾": 5831,
      "Ġdon": 5832,
      "æĿľ": 5833,
      "è±ª": 5834,
      "ending": 5835,
      "Ġcheck": 5836,
      "æĭĴ": 5837,
      "èĢĮè¨Ģ": 5838,
      "çľĭçľĭ": 5839,
      "éł»çİĩ": 5840,
      "åĢŁ": 5841,
      "åĸ»": 5842,
      "æł¹æĵļçµ¦å®ļçļĦ": 5843,
      "éĢĻæ®µæĸĩæľ¬": 5844,
      "Ġvalues": 5845,
      "ä¸Ńèı¯äººæ°ĳåħ±åĴĮåľĭ": 5846,
      "less": 5847,
      "word": 5848,
      "åľ¨ä¸Ńåľĭ": 5849,
      "esp": 5850,
      "åĲĪä½µ": 5851,
      "æİ¥è¿ĳ": 5852,
      "Ġoriginal": 5853,
      "æĻºæħ§åĮĸ": 5854,
      "çĶ¢åĵģçļĦ": 5855,
      "æ¬ĬåĪ©": 5856,
      "aterial": 5857,
      "çµ¦äºĪ": 5858,
      "åĤ³éĢģ": 5859,
      "ants": 5860,
      "æĪĳçĦ¡æ³ķ": 5861,
      "éĮ¦": 5862,
      "Ġallow": 5863,
      "èŀ¢å¹ķ": 5864,
      "èĢĥè©¦": 5865,
      "æ¨£çļĦ": 5866,
      "éİĸ": 5867,
      "Ġgood": 5868,
      "å®¶æĹı": 5869,
      "ä½¿çĶ¨èĢħçļĦ": 5870,
      "æ°ĳä¸»": 5871,
      "è¾Ľ": 5872,
      "æĿ±äº¬": 5873,
      "è£ľåħħ": 5874,
      "Ġvolume": 5875,
      "åħħæ»¿äºĨ": 5876,
      "ious": 5877,
      "å¡Ĺ": 5878,
      "åļĲ": 5879,
      "çļĦæħĭ": 5880,
      "Ġyears": 5881,
      "ĠæīĢä»¥": 5882,
      "ç¢ĳ": 5883,
      "çļĦæııè¿°": 5884,
      "mer": 5885,
      "è²«": 5886,
      "èĻķæĸ¼": 5887,
      "åı¥åŃĲä¸Ń": 5888,
      "Ġsqu": 5889,
      "ively": 5890,
      "Ġwithin": 5891,
      "èĹĿè¡ĵå®¶": 5892,
      "é¡ĺæĦı": 5893,
      "ï¼ļ\"": 5894,
      "éĹĬ": 5895,
      "è³ĩæĸĻåĪĨæŀĲ": 5896,
      "æ¨ĻèªĮ": 5897,
      "ç³»çµ±çļĦ": 5898,
      "ething": 5899,
      "çļĦåĢ¼": 5900,
      "å¹½": 5901,
      "åı¯ä»¥å°ĩ": 5902,
      "é¦ĸæ¬¡": 5903,
      "æ¸¬åĻ¨": 5904,
      "Script": 5905,
      "é«Ķç©į": 5906,
      "Ġnecess": 5907,
      "ier": 5908,
      "pos": 5909,
      "çļĦæĲ": 5910,
      "Ġsoc": 5911,
      "æ¸ħæ¥ļ": 5912,
      "æ¥µç«¯": 5913,
      "åı¯åĨįçĶŁ": 5914,
      "çĪµ": 5915,
      "ç¯ĢæĹ¥": 5916,
      "æµģæļ¢": 5917,
      "Ġmot": 5918,
      "ä¹ĭéĸĵçļĦéĹľä¿Ĥ": 5919,
      "åĪĢ": 5920,
      "ç¾©è©ŀ": 5921,
      "æ°ĳåľĭ": 5922,
      "ID": 5923,
      "çļĦè©©æŃĮ": 5924,
      "Ġaround": 5925,
      "usion": 5926,
      "æĥ³äºĨè§£": 5927,
      "åħīç·ļ": 5928,
      "è²¨å¹£": 5929,
      "CO": 5930,
      "æ³ķéĻ¢": 5931,
      "Ġstep": 5932,
      "æķĻå¸«": 5933,
      "å¼ķå°İ": 5934,
      "åĪ¸": 5935,
      "Ġaut": 5936,
      "rest": 5937,
      "æķ¦": 5938,
      "è¢«è¦ĸçĤº": 5939,
      "è¡ĽæĺŁ": 5940,
      "éµ": 5941,
      "æ´ª": 5942,
      "å¯Ĩåº¦": 5943,
      "åĪĨé¡ŀçĤº": 5944,
      "Ġexpress": 5945,
      "Ġer": 5946,
      "Ġåħ¬": 5947,
      "Ġear": 5948,
      "åģļæ³ķ": 5949,
      "èģ°æĺİ": 5950,
      "åĵºä¹³": 5951,
      "my": 5952,
      "åħħè¶³": 5953,
      "ered": 5954,
      "Ġstream": 5955,
      "åľ¨éĢĻè£¡": 5956,
      "195": 5957,
      "196": 5958,
      "çĻ½èī²": 5959,
      "è»Įéģĵ": 5960,
      "AT": 5961,
      "Ġoper": 5962,
      "çļĦæ®µèĲ½": 5963,
      "æľīè¨±å¤ļ": 5964,
      "èĩĺ": 5965,
      "éĿŀæ³ķ": 5966,
      "èĬ±åľĴ": 5967,
      "Pro": 5968,
      "æĪĲæŀľ": 5969,
      "æľ¬è³ª": 5970,
      "31": 5971,
      "åĪ©æ½¤": 5972,
      "å±¬æĢ§": 5973,
      "åĲ¸æĶ¶": 5974,
      "\\]": 5975,
      "Ġdi": 5976,
      "let": 5977,
      "ä¸įæĸ·çĻ¼å±ķ": 5978,
      "èº«é«Ķåģ¥åº·": 5979,
      "çĸ«èĭĹ": 5980,
      "ÑĮ": 5981,
      "å§¿": 5982,
      "è·ĳæŃ¥": 5983,
      "è½īåĮĸçĤº": 5984,
      "ä¹ĺä»¥": 5985,
      "æŃ¦åĻ¨": 5986,
      "çĪ¶è¦ª": 5987,
      "Hello": 5988,
      "dict": 5989,
      "Ð¼": 5990,
      "æıŃ": 5991,
      "æĦıèŃĺåĪ°": 5992,
      "é£¾æ¼Ķ": 5993,
      "çļĦäºĭæĥħ": 5994,
      "éĽĻæĸ¹": 5995,
      "çļĦä½įç½®": 5996,
      "çĶ¨éĢĶ": 5997,
      "åįĢåĪ¥": 5998,
      "èĨľ": 5999,
      "vent": 6000,
      "ared": 6001,
      "ç¬¬åĽĽ": 6002,
      "ule": 6003,
      "Ġåı¦å¤ĸ": 6004,
      "éĸĴ": 6005,
      "è·¡": 6006,
      "çļĦæ²»çĻĤ": 6007,
      "éģľ": 6008,
      "Ġdevelop": 6009,
      "åĴĮç®¡çĲĨ": 6010,
      "æĽ´é«ĺ": 6011,
      "åĪĹè»Ĭ": 6012,
      "åı¯ä»¥å¹«åĬ©ä½ł": 6013,
      "ration": 6014,
      "åı¯ä»¥èĢĥæħ®": 6015,
      "Ġbr": 6016,
      "çĲĥåĵ¡": 6017,
      "åĸľå¥½": 6018,
      "éĻĲæĸ¼": 6019,
      "ee": 6020,
      "è«ĭçµ¦æĪĳ": 6021,
      "åĦªæĥł": 6022,
      "Ġworks": 6023,
      "åĦĺéĩı": 6024,
      "Ġdirection": 6025,
      "//": 6026,
      "åĴĮçĲĨè§£": 6027,
      "åĲ¹": 6028,
      "iron": 6029,
      "çĴ°å¢ĥä¸Ń": 6030,
      "è¾Ń": 6031,
      "åľĸæĽ¸é¤¨": 6032,
      "ming": 6033,
      "æĻĤå°ļ": 6034,
      "Ġlear": 6035,
      "çļĦæŁ": 6036,
      "Ġbrown": 6037,
      "å¼ķåĬĽ": 6038,
      "Ġwearing": 6039,
      "orted": 6040,
      "Ġser": 6041,
      "æŀĿ": 6042,
      "æ£ĭ": 6043,
      "Ġhold": 6044,
      "æĲįå¤±": 6045,
      "çĸĬ": 6046,
      "Ġinvolv": 6047,
      "ero": 6048,
      "ited": 6049,
      "1000": 6050,
      "å·¥èĹĿ": 6051,
      "éĸĭéłŃ": 6052,
      "åĨ¥": 6053,
      "æĸ¯åĿ¦": 6054,
      "éĩįè¦ģçļĦæĺ¯": 6055,
      "æĪĳåĢĳçļĦçĶŁæ´»": 6056,
      "æķ£æŃ¥": 6057,
      "Ġest": 6058,
      "åĮĸåĲĪçī©": 6059,
      "æĶ¹çĤº": 6060,
      "Ñĭ": 6061,
      "ä¸ŃçļĦæĩīçĶ¨": 6062,
      "Ġworld": 6063,
      "æĽ´å¿«": 6064,
      "ç«ĭåį³": 6065,
      "è¨±åı¯": 6066,
      "æľīæķĪçļĦ": 6067,
      "ique": 6068,
      "èĩ³éĹľéĩįè¦ģ": 6069,
      "æľīæ©Ł": 6070,
      "çĴ°å¢ĥæ±ĻæŁĵ": 6071,
      "çļĦæķ´": 6072,
      "åıĭå¥½": 6073,
      "ç·Ĭå¼µ": 6074,
      "Ġsent": 6075,
      "éŁĭ": 6076,
      "åĪ©äºŀ": 6077,
      "è£¡çļĦ": 6078,
      "Ġä¸ĸç´Ģ": 6079,
      "æº¶": 6080,
      "æķıæĦŁ": 6081,
      "è´ıå¾Ĺ": 6082,
      "çļĦæ¢": 6083,
      "å¤§èħ¦": 6084,
      "ãģĻ": 6085,
      "Ġdirectly": 6086,
      "ĠSince": 6087,
      "è³ĩçĶ¢": 6088,
      "aces": 6089,
      "Ġwhite": 6090,
      "ah": 6091,
      "ploy": 6092,
      "%ãĢĤ": 6093,
      "ished": 6094,
      "ç¨į": 6095,
      "It": 6096,
      "èĬĿ": 6097,
      "çĶŁæĪĲä¸Ģç¯ĩ": 6098,
      "Ġsomething": 6099,
      "âĪ": 6100,
      "çĻ¼è¡¨": 6101,
      "æľĢæĸ°çļĦ": 6102,
      "ä½Ĩåľ¨": 6103,
      "2020": 6104,
      "Ġseems": 6105,
      "çĲĨå¿µ": 6106,
      "çįµ": 6107,
      "äººåĢĳçļĦ": 6108,
      "ĠâĢĵ": 6109,
      "æľ¬åľ°": 6110,
      "æľŁæľĽ": 6111,
      "ĠSp": 6112,
      "èªŀè¨Ģæ¨¡åŀĭ": 6113,
      "çļĦæİĴ": 6114,
      "orld": 6115,
      "Ġbi": 6116,
      "æĽ´çĤº": 6117,
      "éķ·æĻĤéĸĵ": 6118,
      "æ¶¯": 6119,
      "éĽ»åŃĲéĥµä»¶": 6120,
      "çļĦåŁİå¸Ĥ": 6121,
      "å°įå¾ħ": 6122,
      "Ġcannot": 6123,
      "éĢĲæŃ¥": 6124,
      "Ġside": 6125,
      "Ġcomput": 6126,
      "åįĶèª¿": 6127,
      "çļĦæĶ¶": 6128,
      "è©³ç´°çļĦ": 6129,
      "æµªæ¼«": 6130,
      "çļĦæĦŁè¦º": 6131,
      "çĤºæĪĳ": 6132,
      "Ġnon": 6133,
      "åĤµ": 6134,
      "éģĬå®¢": 6135,
      "å²©": 6136,
      "bs": 6137,
      "è§£æŀĲ": 6138,
      "_{": 6139,
      "æĻĤçļĦ": 6140,
      "æĽ´æľī": 6141,
      "æ¯Ķä¾ĭ": 6142,
      "å¹³éĿ¢": 6143,
      "çĸ²": 6144,
      "ç©©å®ļæĢ§": 6145,
      "è¡£æľį": 6146,
      "ĠZ": 6147,
      "Ġä¸Ģ": 6148,
      "Ġserv": 6149,
      "Ġloc": 6150,
      "éĢļå¸¸æĺ¯": 6151,
      "å¦¹": 6152,
      "Ġä½ł": 6153,
      "urs": 6154,
      "Ġcomb": 6155,
      "æııç¹ª": 6156,
      "ision": 6157,
      "Ġwell": 6158,
      "æķ¸åĪĹ": 6159,
      "æĥ³åĥı": 6160,
      "çĿĽ": 6161,
      "itional": 6162,
      "çĽĴ": 6163,
      "å¼·åº¦": 6164,
      "æĴĴ": 6165,
      "çªģçł´": 6166,
      "Ġstandard": 6167,
      "éŁĵåľĭ": 6168,
      "åĭ¤": 6169,
      "çķ¶åľ°çļĦ": 6170,
      "yn": 6171,
      "åĤ³çµ±çļĦ": 6172,
      "åĽºå®ļ": 6173,
      "éĢĿ": 6174,
      "åı¯ä»¥éģ¸æĵĩ": 6175,
      "æĺİå¤©": 6176,
      "Ġcharge": 6177,
      "èª¼": 6178,
      "é«ĺéĢŁ": 6179,
      "éĩįå¤§": 6180,
      "Ġlim": 6181,
      "Ġlaw": 6182,
      "åĪªéĻ¤": 6183,
      "ĠéĢĻ": 6184,
      "Ġdid": 6185,
      "åĤ³è¼¸": 6186,
      "çį²å¾ĹäºĨ": 6187,
      "ĠðŁ": 6188,
      "itial": 6189,
      "åĩĿ": 6190,
      "ality": 6191,
      "é¢¨æĻ¯": 6192,
      "çħĻ": 6193,
      "å¤ıæĹ¥": 6194,
      "æĩ¸": 6195,
      "%ï¼Į": 6196,
      "åĴĮæ°´": 6197,
      "å®ĭ": 6198,
      "da": 6199,
      "æī£": 6200,
      "Ġgr": 6201,
      "å¤ĸéĥ¨": 6202,
      "æĲĸ": 6203,
      "Ġtype": 6204,
      "çĳªéºĹ": 6205,
      "Ð²": 6206,
      "Ġç¸½ä¹ĭ": 6207,
      "ä¸¦ä¸įæĺ¯": 6208,
      "ä»¥ä¸ĭå¹¾": 6209,
      "æĪĳè¦ģ": 6210,
      "ank": 6211,
      "è¥²": 6212,
      "å¼·èª¿äºĨ": 6213,
      "æķ´çĲĨ": 6214,
      "ä¿¡çĶ¨": 6215,
      "éĢ±æľ«": 6216,
      "Two": 6217,
      "Ġ300": 6218,
      "verage": 6219,
      "çļĦæ±ºçŃĸ": 6220,
      "è¢«å»£æ³Ľ": 6221,
      "Ġ70": 6222,
      "Ġsee": 6223,
      "å±ħä½ı": 6224,
      "oint": 6225,
      "åŃ¸ç§ĳ": 6226,
      "ä¹Łåı¯èĥ½": 6227,
      "æĦŁçŁ¥": 6228,
      "çŁĽ": 6229,
      "çĪ¾æĸ¯": 6230,
      "çĪ¶æ¯į": 6231,
      "Ġhapp": 6232,
      "çĽ¸çķ¶": 6233,
      "åĲĳéĩı": 6234,
      "èĺ¿": 6235,
      "ublic": 6236,
      "æŀļ": 6237,
      "æ´©": 6238,
      "çªģåĩº": 6239,
      "ç¦®çī©": 6240,
      "å´Ĺ": 6241,
      "Ġunderstand": 6242,
      "æ¯ıä¸Ģ": 6243,
      "éľĢè¦ģæ³¨æĦıçļĦæĺ¯": 6244,
      "AN": 6245,
      "åĴĮè³ĩæºĲ": 6246,
      "åı¯ä»¥æıĲä¾Ľ": 6247,
      "å¿ĥåĴĮ": 6248,
      "è¬Ģ": 6249,
      "è¨ĺæĨ¶é«Ķ": 6250,
      "ä¸įåĨį": 6251,
      "æľĢå¥½çļĦ": 6252,
      "æĸ°èģŀåł±éģĵ": 6253,
      "æ©Łåł´": 6254,
      "ç´ĦçĤº": 6255,
      "ÙĦ": 6256,
      "æĺ¯ä¸į": 6257,
      "çļĦæ¶": 6258,
      "éĹľéįµè³ĩè¨Ĭ": 6259,
      "å·¥ç¨ĭå¸«": 6260,
      "Ġagainst": 6261,
      "'ll": 6262,
      "29": 6263,
      "éĹľéĸī": 6264,
      "æ²»çĲĨ": 6265,
      "æĦīå¿«": 6266,
      "çºĸç¶Ń": 6267,
      "åĩºè¡Į": 6268,
      "æµ·çģĺ": 6269,
      "æĽ´å¥½åľ°çĲĨè§£": 6270,
      "äººéļĽ": 6271,
      "åľ°åĿĢ": 6272,
      "å¹´ä»£": 6273,
      "æ¬Ħ": 6274,
      "line": 6275,
      "æĸ¼æĺ¯": 6276,
      "æĹģ": 6277,
      "å¼·å¤§çļĦ": 6278,
      "çľģä»½": 6279,
      "åĭŀåĭķ": 6280,
      "Test": 6281,
      "è¡Įé§Ľ": 6282,
      "æ¸ħåĸ®": 6283,
      "Ġens": 6284,
      "ason": 6285,
      "ä¹ĭèĻķ": 6286,
      "ç§ĳæĻ®": 6287,
      "å¸¶æľī": 6288,
      "ĠWhile": 6289,
      "27": 6290,
      "çĤºä¸»": 6291,
      "å°įæīĭ": 6292,
      "è§Ģæ¸¬": 6293,
      "å®īåħ¨æĢ§": 6294,
      "çĸ«æĥħ": 6295,
      "çļĦæķĪçİĩ": 6296,
      "Based": 6297,
      "Do": 6298,
      "ÏĢ": 6299,
      "ĠâĢĶâĢĶ": 6300,
      "amb": 6301,
      "é½Ĵ": 6302,
      "à¤": 6303,
      "çĻ¼æĺİ": 6304,
      "å°±æľĥ": 6305,
      "æ°¸éģł": 6306,
      "ole": 6307,
      "ç¶ĵçĲĨ": 6308,
      "çİ»": 6309,
      "æĸĩåĮĸçļĦ": 6310,
      "ĠFirst": 6311,
      "Ġcomplete": 6312,
      "çĪ½": 6313,
      "å¿ĥæħĭ": 6314,
      "æĮĩå®ļ": 6315,
      "ogle": 6316,
      "å¦»": 6317,
      "èĪªç©º": 6318,
      "Ġæł¹æĵļ": 6319,
      "ional": 6320,
      "è«ĭæ³¨æĦı": 6321,
      "ä»ĸåĢĳåľ¨": 6322,
      "éģĭçĶ¨": 6323,
      "è¤ĩéĽľçļĦ": 6324,
      "æĹ©æľŁ": 6325,
      "Ġå¤§": 6326,
      "åĴĮåĪĨæŀĲ": 6327,
      "Ġcr": 6328,
      "Ġmem": 6329,
      "æĸ°åŀĭ": 6330,
      "Ġneg": 6331,
      "å¼µä¸ī": 6332,
      "Ġinteg": 6333,
      "åı¯ä»¥å¾ŀ": 6334,
      "åĲĮäºĭ": 6335,
      "æĤī": 6336,
      "åł´åĲĪ": 6337,
      "çľ¼çĿĽ": 6338,
      "Ġalong": 6339,
      "è²¿æĺĵ": 6340,
      "ä¸Ģæ¢Ŀ": 6341,
      "åĲĪåĲĮ": 6342,
      "éĢıéľ²": 6343,
      "Ġarray": 6344,
      "å½¢å®¹è©ŀ": 6345,
      "Ñı": 6346,
      "ä¸»äºº": 6347,
      "194": 6348,
      "Ġsing": 6349,
      "çŃīåĽłç´ł": 6350,
      "å¼·åĮĸ": 6351,
      "è¬¹": 6352,
      "Ġfound": 6353,
      "imal": 6354,
      "æķĻèĤ²åĴĮ": 6355,
      "æĵ´å¤§": 6356,
      "Ġbus": 6357,
      "æŁ±": 6358,
      "åĻ´": 6359,
      "arily": 6360,
      "éģºåĤ³": 6361,
      "ately": 6362,
      "Ġmention": 6363,
      "åŁºéĩĳ": 6364,
      "è¥¿äºŀ": 6365,
      "å½·": 6366,
      "åĢĴåħ¥": 6367,
      "æł¹æĵļä»¥ä¸ĭ": 6368,
      "è¼ĥä½İ": 6369,
      "æĭĨ": 6370,
      "bon": 6371,
      "äºĭåĭĻ": 6372,
      "ateg": 6373,
      "æ¢¯": 6374,
      "åĵºä¹³åĭķçī©": 6375,
      "mm": 6376,
      "oogle": 6377,
      "æĪĳåĸľæŃ¡": 6378,
      "way": 6379,
      "Ġfam": 6380,
      "ç¬¬ä¸Ģæ¬¡": 6381,
      "åĨ¥æĥ³": 6382,
      "åĪ·": 6383,
      "åľ¨ä¸įåĲĮ": 6384,
      "ç´ĭ": 6385,
      "Ġbeh": 6386,
      "çĳŁ": 6387,
      "è¡¨ç¤ºå¼ı": 6388,
      "Ġevery": 6389,
      "çįħ": 6390,
      "Ġelements": 6391,
      "åĪºæ¿Ģ": 6392,
      "=\"": 6393,
      "æľīä¸ĢäºĽ": 6394,
      "cm": 6395,
      "æµ¸": 6396,
      "å°İæ¼Ķ": 6397,
      "åħĪéĢ²": 6398,
      "å¦Ĥä½ķå½±éŁ¿": 6399,
      "Ġcomplex": 6400,
      "Ġbond": 6401,
      "æĮĩåįĹ": 6402,
      "éģĩåĪ°äºĨ": 6403,
      "çĽ¡åĬĽ": 6404,
      "hip": 6405,
      "æĢª": 6406,
      "Ġmain": 6407,
      "Ġow": 6408,
      "ç¦ģæŃ¢": 6409,
      "Ġthink": 6410,
      "76": 6411,
      "Ġmaterial": 6412,
      "æľĢåĪĿ": 6413,
      "çĻ¼å±ķçļĦ": 6414,
      "å¼ķçĶ¨": 6415,
      "è¼ķè¼ķ": 6416,
      "åŃĺåľ¨çļĦ": 6417,
      "å¿ĥçĲĨåģ¥åº·": 6418,
      "left": 6419,
      "Ġhad": 6420,
      "è³ªéĩıåĴĮ": 6421,
      "Ġour": 6422,
      "èª¿åĳ³": 6423,
      "é¬±": 6424,
      ")^": 6425,
      "kely": 6426,
      "Ġtre": 6427,
      "Ġcase": 6428,
      "èģ¯çĽŁ": 6429,
      "Ġcreate": 6430,
      "åĴª": 6431,
      "åĴĮè³ĩæĸĻ": 6432,
      "äººé«Ķ": 6433,
      "äºĴçĽ¸": 6434,
      "éĢ£çµĲ": 6435,
      "æĪĸæĺ¯": 6436,
      "otal": 6437,
      "èĩªæĪĳæĦıèŃĺ": 6438,
      "ç±ĥçĲĥ": 6439,
      "è®ĵä½¿çĶ¨èĢħ": 6440,
      "ĠNeg": 6441,
      "èķī": 6442,
      "OH": 6443,
      "yl": 6444,
      "äºķ": 6445,
      "éĢĨ": 6446,
      "æĤł": 6447,
      "Ġthird": 6448,
      "åĵªç¨®": 6449,
      "æ©«": 6450,
      "Ġelse": 6451,
      "ĶĢ": 6452,
      "æĤ²": 6453,
      "æľīæīĢä¸įåĲĮ": 6454,
      "çļĦæĹħéģĬ": 6455,
      "åı¯åĨįçĶŁèĥ½æºĲ": 6456,
      "çŁĽçĽ¾": 6457,
      "ä¾Ĩçľĭ": 6458,
      "èªŀæ°£": 6459,
      "æĥ³çŁ¥éģĵ": 6460,
      "éģłç«¯": 6461,
      "Ġmaking": 6462,
      "çļĦæķĪèĥ½": 6463,
      "å°įæ¯Ķ": 6464,
      "å¸¸å¸¸": 6465,
      "è¨Ńç«ĭ": 6466,
      "è¬İ": 6467,
      "å¸¶ä¾ĨçļĦ": 6468,
      "AB": 6469,
      "ä¾ĨçļĦ": 6470,
      "åĪĨè§£": 6471,
      "åľĺé«Ķ": 6472,
      "æĵĶå¿ĥ": 6473,
      "Re": 6474,
      "èł": 6475,
      "ä¸įå¤ª": 6476,
      "å¼·å¤§": 6477,
      "æĶ¹å¯«": 6478,
      "è¿ĳå¹´ä¾Ĩ": 6479,
      "ãĢĤâĢľ": 6480,
      "å¯º": 6481,
      "å¥³åŃĲ": 6482,
      "Ġconsist": 6483,
      "å¹¼": 6484,
      "å½¿": 6485,
      "Ġarea": 6486,
      "å½·å½¿": 6487,
      "Ġå°ı": 6488,
      "æĻ´": 6489,
      "ä¹Łåľ¨": 6490,
      "ithm": 6491,
      "èŃ¦å¯Ł": 6492,
      "view": 6493,
      "å°ĳå¹´": 6494,
      "èħ¸": 6495,
      "çľŁæŃ£çļĦ": 6496,
      "Ġrespon": 6497,
      "ux": 6498,
      "çĤºä½ł": 6499,
      "æ¯ıå¹´": 6500,
      "èģ¯è³½": 6501,
      "ç¨ĭåºı": 6502,
      "Ġgas": 6503,
      "åħĭæľį": 6504,
      "Ġbefore": 6505,
      "åıĭèª¼": 6506,
      "éĻª": 6507,
      "Ġ29": 6508,
      "é«ĺè³ªéĩı": 6509,
      "æ¯ıéĢ±": 6510,
      "ygen": 6511,
      "å¥ĳ": 6512,
      "ç¯©": 6513,
      "å¢ĵ": 6514,
      "Ġ196": 6515,
      "aining": 6516,
      "Ġquick": 6517,
      "çķĻä¸ĭ": 6518,
      "ÛĮ": 6519,
      "å»Ł": 6520,
      "è³ĩæĸĻåĴĮ": 6521,
      "ãģĹ": 6522,
      "ĠThus": 6523,
      "ĠPositive": 6524,
      "DNA": 6525,
      "ï¼Į\"": 6526,
      "æ³ī": 6527,
      "æ¸ł": 6528,
      "åĢĭäººçļĦ": 6529,
      "åľ°éĿ¢": 6530,
      "ift": 6531,
      "æ¨¡çµĦ": 6532,
      "å¸Įèĩĺ": 6533,
      "ĠNegative": 6534,
      "mon": 6535,
      "Ġsl": 6536,
      "çı¾åł´": 6537,
      "æİ¥æĶ¶": 6538,
      "Ġprote": 6539,
      "åıįæĢĿ": 6540,
      "çĴ°ä¿ĿçļĦ": 6541,
      "çļĦæĶ¹": 6542,
      "éĩİçĶŁ": 6543,
      "...": 6544,
      "âĶĢ": 6545,
      "çĶĺ": 6546,
      "å¾Īå¤§": 6547,
      "å¥¹åĢĳ": 6548,
      "åĩºçĶŁ": 6549,
      "æĦŁåĴĮ": 6550,
      "çµ¦ä½ł": 6551,
      "ĠPl": 6552,
      "èĩºåĮĹ": 6553,
      "åĭĩæ°£": 6554,
      "Ø§Ø": 6555,
      "å§ĵåĲį": 6556,
      "çļĦæĳĺè¦ģ": 6557,
      "å°ıçļĦ": 6558,
      "çĩĥæĸĻ": 6559,
      "æĭĴçµķ": 6560,
      "rm": 6561,
      "åĴĮå»ºèŃ°": 6562,
      "çĶŁæ´»çļĦ": 6563,
      "åĳ½åĲį": 6564,
      "çī©çĲĨåŃ¸": 6565,
      "Ġself": 6566,
      "åı¯èĥ½æĽ´": 6567,
      "ãģĦ": 6568,
      "è¦ģæ³¨æĦı": 6569,
      "å®ļè£½": 6570,
      "éĢĻäºĽåķıé¡Į": 6571,
      "Ġheat": 6572,
      "Ġlarge": 6573,
      "ä¸įåĥħåĥħæĺ¯": 6574,
      "cle": 6575,
      "èĢĢ": 6576,
      "æľīéĻĲåħ¬åı¸": 6577,
      "æĪĳæĩīè©²": 6578,
      "çŁ¥èŃĺåĴĮ": 6579,
      "Ġbuild": 6580,
      "æľĥå°į": 6581,
      "çĪ¬": 6582,
      "çļĦæĿ±": 6583,
      "ways": 6584,
      "æıĲåīį": 6585,
      "Ġinclude": 6586,
      "self": 6587,
      "åĴĮæľįåĭĻ": 6588,
      "Ġbel": 6589,
      "éĻ¶": 6590,
      "å¯«ä¸ĢåĢĭ": 6591,
      "Ġcalculate": 6592,
      "34": 6593,
      "ĠæĪĸ": 6594,
      "æĶľ": 6595,
      "ç£¨": 6596,
      "èªŀå¢ĥ": 6597,
      "çµ±ä¸Ģ": 6598,
      "ç°¡åĮĸ": 6599,
      "è¹Ī": 6600,
      "çĽ¸æĩīçļĦ": 6601,
      "åīµéĢłåĬĽ": 6602,
      "çļĦæħĭåº¦": 6603,
      "ek": 6604,
      "å¿ĥèĩŁ": 6605,
      "æ»¾": 6606,
      "count": 6607,
      "éĢĻæľ¬æĽ¸": 6608,
      "éŁ»": 6609,
      "æķ¸æĺ¯": 6610,
      "æ°´ä¸Ń": 6611,
      "math": 6612,
      "å£ģ": 6613,
      "åīµæ¥Ń": 6614,
      "äºĮæ°§åĮĸ": 6615,
      "åŀĥåľ¾åĪĨé¡ŀ": 6616,
      "å¾Ĳ": 6617,
      "æĢķ": 6618,
      "Ġfri": 6619,
      "çĽ¸æ¯Ķ": 6620,
      "å±¤æ¬¡": 6621,
      "é¦Ļèķī": 6622,
      "Ġpoints": 6623,
      "Ġsal": 6624,
      "åı¤èĢģ": 6625,
      "åĭķæ©Ł": 6626,
      "æŃ¸é¡ŀ": 6627,
      "åĴĮå·¥ä½ľ": 6628,
      "èģ½èµ·ä¾Ĩ": 6629,
      "åľ°çĲĥçļĦ": 6630,
      "åı¬": 6631,
      "Ġpur": 6632,
      "æľĥåľ¨": 6633,
      "æĮ¯": 6634,
      "åº¦çļĦ": 6635,
      "ç°¡è¦ģ": 6636,
      "æĤ£èĢħçļĦ": 6637,
      "ä½¿çĶ¨èĢħåķıçļĦæĺ¯": 6638,
      "éĤģ": 6639,
      "Ġconsider": 6640,
      "åĮĻ": 6641,
      "çĶŁå¹³": 6642,
      "å»·": 6643,
      "æ¿Ģåĭµ": 6644,
      "éĬ·åĶ®é¡į": 6645,
      "éĭª": 6646,
      "lish": 6647,
      "Ã¡": 6648,
      "Ġang": 6649,
      "Ġvis": 6650,
      "Ġlevel": 6651,
      "ãĤĴ": 6652,
      "åķŁåĭķ": 6653,
      "Ġknown": 6654,
      "Ġplaying": 6655,
      "íķ": 6656,
      "å®ĮåĸĦ": 6657,
      "æĴ¤": 6658,
      "ä½ľçĤºAI": 6659,
      "å®¤æ°£é«Ķ": 6660,
      "åģľæŃ¢": 6661,
      "Ġ&": 6662,
      "ä¸»å¸Ń": 6663,
      "ç³Ĭ": 6664,
      "åħįè²»": 6665,
      "Ġusual": 6666,
      "IN": 6667,
      "åŀĤ": 6668,
      "ç±ł": 6669,
      "Ġ75": 6670,
      "æŃī": 6671,
      "ç·¨å¯«ä¸ĢåĢĭ": 6672,
      "åĴĮæĬĢè¡ĵ": 6673,
      "åĽŀè¦Ĩ": 6674,
      "èħ«": 6675,
      "')": 6676,
      "åĪĨæķ£": 6677,
      "æĢ§è³ª": 6678,
      "è¼»": 6679,
      "é£Ħ": 6680,
      "åħ±åĲĮåĬªåĬĽ": 6681,
      "RO": 6682,
      "}}{": 6683,
      "Ã³": 6684,
      "æľīæĻĤ": 6685,
      "å»ºéĢł": 6686,
      "ysis": 6687,
      "å¹³åĿĩåĢ¼": 6688,
      "ling": 6689,
      "ä¸Ģéłħ": 6690,
      "rop": 6691,
      "éĢ²è¡ĮäºĨ": 6692,
      "face": 6693,
      "å°¿": 6694,
      "Ġbal": 6695,
      "Ġtop": 6696,
      "èģ¯éĤ¦": 6697,
      "æĹ©ä¸Ĭ": 6698,
      "Ġminutes": 6699,
      "ä¸įçŁ¥éģĵ": 6700,
      "æ°¯": 6701,
      "æĪ°çķ¥": 6702,
      "è²¡çĶ¢": 6703,
      "Ġlooking": 6704,
      "Tom": 6705,
      "åĴĮæĥħæĦŁ": 6706,
      "ols": 6707,
      "æª¸": 6708,
      "ç§ĳæĬĢçļĦ": 6709,
      "çļĦæ¸ħ": 6710,
      "å§Ĳ": 6711,
      "èŀįåħ¥": 6712,
      "\\(": 6713,
      "Ġï¼Ī": 6714,
      "èĩªçĦ¶çģ½å®³": 6715,
      "ĠEng": 6716,
      "ty": 6717,
      "èĥ¸": 6718,
      "ç·¨ç¢¼": 6719,
      "ä¸»èªŀ": 6720,
      "éģ¸åĸ®": 6721,
      "èĪŀè¹Ī": 6722,
      "çĶŁæ¶¯": 6723,
      "Ġfood": 6724,
      "åľĸçīĩ": 6725,
      "apt": 6726,
      "æ³Ĭ": 6727,
      "åĵģåļĲ": 6728,
      "ivid": 6729,
      "è¼ĥé«ĺ": 6730,
      "åĿĩè¡¡": 6731,
      "numbers": 6732,
      "data": 6733,
      "å¤ĸè§Ģ": 6734,
      "æĶ¾æ£Ħ": 6735,
      "co": 6736,
      "Ġed": 6737,
      "ination": 6738,
      "æĪĳæ²Ĵæľī": 6739,
      "éŃħ": 6740,
      "æħ¶ç¥Ŀ": 6741,
      "TP": 6742,
      "Wh": 6743,
      "ç¢Ĺ": 6744,
      "æ³ķèªŀ": 6745,
      "åĬĽæĸ¼": 6746,
      "ï¼ī**ï¼ļ": 6747,
      "çĭĲ": 6748,
      "å®īåħ¨åĴĮ": 6749,
      "Ġacid": 6750,
      "ology": 6751,
      "Ġ%": 6752,
      "åĬłåĬĩ": 6753,
      "ç®Ń": 6754,
      "è§Ģå¿µ": 6755,
      "æĽ´å¥½åľ°çŀŃè§£": 6756,
      "ç¦ıåĪ©": 6757,
      "çļĦæºĿéĢļ": 6758,
      "ik": 6759,
      "zy": 6760,
      "alcul": 6761,
      "Ġhydro": 6762,
      "Ġrate": 6763,
      "äººåĴĮ": 6764,
      "çķ¶ä»Ĭ": 6765,
      "éĽ»èħ¦ç§ĳåŃ¸": 6766,
      "Ġimportant": 6767,
      "Ġboy": 6768,
      "Ġbeen": 6769,
      "aut": 6770,
      "kay": 6771,
      "sum": 6772,
      "work": 6773,
      "åĪĬ": 6774,
      "ä¼į": 6775,
      "Ġ35": 6776,
      "çļĦçĶŁæ´»æĸ¹å¼ı": 6777,
      "38": 6778,
      "Ġtable": 6779,
      "arg": 6780,
      "Ġbreak": 6781,
      "</": 6782,
      "é±": 6783,
      "çļĦçĶ¢åĵģ": 6784,
      "Ġsense": 6785,
      "æ¼Ĥ": 6786,
      "iving": 6787,
      "éłĲåł±": 6788,
      "å¤ľæĻļ": 6789,
      "omm": 6790,
      "ç¾İæĻ¯": 6791,
      "çļĦæĥħç·Ĵ": 6792,
      "èĻĽæĵ¬çı¾å¯¦": 6793,
      "æĦīæĤħ": 6794,
      "Ġident": 6795,
      "Ġsw": 6796,
      "å£ĩ": 6797,
      "ä¸ŃåľĭçļĦ": 6798,
      "åĪĩæĪĲ": 6799,
      "oot": 6800,
      "ouse": 6801,
      "asing": 6802,
      "ä¸»è§Ģ": 6803,
      "çĽ¸åĬł": 6804,
      "éĥ½åľ¨": 6805,
      "Ġyoung": 6806,
      "Ġamount": 6807,
      "72": 6808,
      "æ»´": 6809,
      "éĩĳé¡į": 6810,
      "Ġpositive": 6811,
      "çĥ¤ç®±": 6812,
      "åħĶåŃĲ": 6813,
      "èĪį": 6814,
      "å¯¦éļĽæĩīçĶ¨": 6815,
      "oad": 6816,
      "åĭĥ": 6817,
      "Ġpat": 6818,
      "æİ¢éļª": 6819,
      "çħ§é¡§": 6820,
      "ãĢĤ**": 6821,
      "æľīçĶ¨": 6822,
      "ana": 6823,
      "å¤§è¦ıæ¨¡": 6824,
      "å¿ĥéĿĪ": 6825,
      "éĬħ": 6826,
      "åĲĽ": 6827,
      "æĦıè¦ĭ": 6828,
      "ãĥ¼": 6829,
      "åĨ°çĲĥ": 6830,
      "Ġäººå·¥æĻºæħ§": 6831,
      "æħİ": 6832,
      "å¤ļæ¬¡": 6833,
      "åĽŀåĪ°": 6834,
      "ns": 6835,
      "ä¸Ńéĸĵ": 6836,
      "æĪĳçĤºæĤ¨": 6837,
      "é£ŁèŃľ": 6838,
      "éĤ£åĢĭ": 6839,
      "çļĦæ¢Ŀ": 6840,
      "åıī": 6841,
      "ä¸Ģå®ļçļĦ": 6842,
      "å¤§åľ°": 6843,
      "éľĢè¦ģèĢĥæħ®": 6844,
      "omet": 6845,
      "åıªè¦ģ": 6846,
      "èįīèİĵ": 6847,
      "éĢĻæ¬¡": 6848,
      "å°±èĥ½": 6849,
      "ä¸įæĸ·åľ°": 6850,
      "rue": 6851,
      "ĠèĪĩ": 6852,
      "Ġball": 6853,
      "æĵ¦": 6854,
      "éĻµ": 6855,
      "åĬłæĭ¿": 6856,
      "imour": 6857,
      "å°±åĥı": 6858,
      "Ġtaimour": 6859,
      "å¯§éĿľ": 6860,
      "çļĦæ¬ĬåĪ©": 6861,
      "son": 6862,
      "çī§": 6863,
      "æĵº": 6864,
      "æĹ¦": 6865,
      "ä¹Łå¾Ī": 6866,
      "ĠThese": 6867,
      "å°Īæ³¨æĸ¼": 6868,
      "æİĥ": 6869,
      "Ġprof": 6870,
      "ĠMay": 6871,
      "æĴŃæĶ¾": 6872,
      "è¨»åĨĬ": 6873,
      "ĠAnswer": 6874,
      "å®ļå¾ĭ": 6875,
      "æª¬": 6876,
      "å¦Ŀ": 6877,
      "ertain": 6878,
      "æĿ±è¥¿": 6879,
      "ä¾¿æį·": 6880,
      "ĠInc": 6881,
      "Ġdesign": 6882,
      "éłģéĿ¢": 6883,
      "ĠUsing": 6884,
      "éĽŀèĤī": 6885,
      "æıĲåĪ°çļĦ": 6886,
      "è²¸æ¬¾": 6887,
      "set": 6888,
      "çļĦåīį": 6889,
      "æĻĤåħī": 6890,
      "æķ¸çĤº": 6891,
      "ä»¥ä¸ĭå¹¾åĢĭæĸ¹éĿ¢": 6892,
      "fficient": 6893,
      "åĢ¡": 6894,
      "å¾¹": 6895,
      "å·¡": 6896,
      "Ġcross": 6897,
      "2016": 6898,
      "éģĭåĭķæľĥ": 6899,
      "rain": 6900,
      "plic": 6901,
      "å»£æ³ĽçļĦæĩīçĶ¨": 6902,
      "Ġmoles": 6903,
      "Ġiss": 6904,
      "æ¬º": 6905,
      "ä¸ĢäºĽéĹľæĸ¼": 6906,
      "Ġimpact": 6907,
      "Ġfinal": 6908,
      "ĠAdd": 6909,
      "éłĲæľŁ": 6910,
      "çĨ±éĸĢ": 6911,
      "çª®": 6912,
      "çĢı": 6913,
      "viron": 6914,
      "è¡°": 6915,
      "arrow": 6916,
      "åľĭæ°ĳ": 6917,
      "åİ»äºĨ": 6918,
      "å±±èĦĪ": 6919,
      "agraph": 6920,
      "çļĦé«ĺ": 6921,
      "çļĦåĲĮæĻĤ": 6922,
      "éļ¸": 6923,
      "çĲĨæĥ³": 6924,
      "ä¸»æķĻ": 6925,
      "Ġprob": 6926,
      "èģ½èªª": 6927,
      "åı¯ä»¥å¹«åĬ©æĪĳåĢĳ": 6928,
      "è¹Ł": 6929,
      "æĢİæ¨£": 6930,
      "Ġelectrons": 6931,
      "Ġinference": 6932,
      "åĬĽåŃ¸": 6933,
      "æ¡Īä»¶": 6934,
      "Ġide": 6935,
      "æĺ¯æľĢ": 6936,
      "Ġgen": 6937,
      "å·²ç¶ĵæĪĲçĤº": 6938,
      "æ²Ļçģĺ": 6939,
      "ĠåĦĦ": 6940,
      "æĪĳåľ¨": 6941,
      "èĻİ": 6942,
      "èªªæ³ķ": 6943,
      "æŃĮè©ŀ": 6944,
      "çļĦæ©ŁåĻ¨": 6945,
      "ä¸īè§Ĵå½¢": 6946,
      "æĪĳå¾Ĺ": 6947,
      "æķ¸åŃĹåĮĸ": 6948,
      "å¿ĥçĲĨåŃ¸": 6949,
      "çĢıè¦½": 6950,
      "Ġflow": 6951,
      "è®ĵäººåĢĳ": 6952,
      "èĹī": 6953,
      "æĴĲ": 6954,
      "çħ§çīĩ": 6955,
      "----------------": 6956,
      "å¬°": 6957,
      "æ¯Ģ": 6958,
      "æ¿±": 6959,
      "è¤ĩè£½": 6960,
      "åŁİå¸ĤçļĦ": 6961,
      "é©ħåĭķ": 6962,
      "æĺĨ": 6963,
      "æ·»": 6964,
      "çµĦæĪĲéĥ¨åĪĨ": 6965,
      "HT": 6966,
      "á»": 6967,
      "çļĦè¨Ńè¨Ī": 6968,
      "ances": 6969,
      "æĬĢè¡ĵåĴĮ": 6970,
      "åĪĨæĪĲ": 6971,
      "éĹľå¿ĥ": 6972,
      "++": 6973,
      "çŃīæĬĢè¡ĵ": 6974,
      "æī¹è©ķ": 6975,
      "Ġpop": 6976,
      "åħ¬è·¯": 6977,
      "åĿ¡": 6978,
      "å§»": 6979,
      "ç©¿èĳĹ": 6980,
      "å¾ĮçºĮ": 6981,
      "å»£åł´": 6982,
      "çįİåĭµ": 6983,
      "éĢĶå¾ĳ": 6984,
      "åıĸå¾ĹäºĨ": 6985,
      "Ġdistance": 6986,
      "åľĭåħ§": 6987,
      "iding": 6988,
      "Ġprice": 6989,
      "bo": 6990,
      "çļĦåĥ¹æł¼": 6991,
      "itud": 6992,
      "åĲĮä¸Ģ": 6993,
      "Ġå¹´èĩ³": 6994,
      "å¾ŀæĸĩç«ł": 6995,
      "å¼ķåħ¥": 6996,
      "æħĭåº¦": 6997,
      "ĠFinal": 6998,
      "ĠÐ¿": 6999,
      "åĭĩæķ¢": 7000,
      "ml": 7001,
      "åłĨ": 7002,
      "Ġrest": 7003,
      "ries": 7004,
      "é»ĳèī²": 7005,
      "è¨ºæĸ·åĴĮæ²»çĻĤ": 7006,
      "åĭĿåĪ©": 7007,
      "pple": 7008,
      "å°ĩåľ¨": 7009,
      "Ġ400": 7010,
      "æĴŀ": 7011,
      "ocus": 7012,
      "Ġaccess": 7013,
      "éĳĳ": 7014,
      "åĲĮå¹´": 7015,
      "æ©Łæ¢°": 7016,
      "çĴĥ": 7017,
      "éĽĨåĲĪ": 7018,
      "ç¬ĳè©±": 7019,
      "äºĮæ°§åĮĸç¢³": 7020,
      "éĢĻæľīåĬ©æĸ¼": 7021,
      "Ġlikely": 7022,
      "Ġâľ": 7023,
      "Ġtypically": 7024,
      "æ°Ľåľį": 7025,
      "éĹ¡": 7026,
      "Ġvery": 7027,
      "çĨ±éĩı": 7028,
      "Ġhealth": 7029,
      "å«Į": 7030,
      "Ġçķ¶": 7031,
      "çļĦä»»åĭĻ": 7032,
      "åįĵ": 7033,
      "åĩºçĻ¼": 7034,
      "è²ĵåĴª": 7035,
      "2023": 7036,
      "æ¬ĸ": 7037,
      "æķĻæİĪ": 7038,
      "åĽłçĤºå®ĥåĢĳ": 7039,
      "éļ¨å¾Į": 7040,
      "éĺ¿æĭī": 7041,
      "æī¿æĵĶ": 7042,
      "éģºçĶ¢": 7043,
      "date": 7044,
      "Ġmark": 7045,
      "ï¼ī**": 7046,
      "åĲĪæĪĲ": 7047,
      "åįĢåĪĨ": 7048,
      "å°±åı¯ä»¥": 7049,
      "Ġshow": 7050,
      "Ġet": 7051,
      "ä¹Łèĥ½": 7052,
      "Ġconc": 7053,
      "éľĢæ±ĤåĴĮ": 7054,
      "Ġmeas": 7055,
      "Ġmodel": 7056,
      "400": 7057,
      "ĠSh": 7058,
      "æİ¥èĳĹ": 7059,
      "æµģéĩı": 7060,
      "çĸ¼": 7061,
      "çĴ°ä¿ĿæĦıèŃĺ": 7062,
      "ĠAlso": 7063,
      "æ¸łéģĵ": 7064,
      "Ġtimes": 7065,
      "è³Ī": 7066,
      "éľ§": 7067,
      "Ġtoo": 7068,
      "å¾ŀäºĭ": 7069,
      "æķĪæĩī": 7070,
      "éĦŃ": 7071,
      "æľīäºĽäºº": 7072,
      "ï¼ĮãĢĬ": 7073,
      "åı¯è¡Į": 7074,
      "ç·ļæĢ§": 7075,
      "çĩķ": 7076,
      "éĽ»è¦ĸåĬĩ": 7077,
      "èĿ¶": 7078,
      "æħĪ": 7079,
      "è¨ĺä½ı": 7080,
      "çĨ±æĥħ": 7081,
      "èıľåĵģ": 7082,
      "ä¾Ŀæĵļ": 7083,
      "çļĦæ¼Ķç®Ĺæ³ķ": 7084,
      "æĺ¨å¤©": 7085,
      "åľ¨æŃ¤": 7086,
      "ument": 7087,
      "å½¢æħĭ": 7088,
      "è¶ħç´ļ": 7089,
      "55": 7090,
      "ips": 7091,
      "åĪĨæķ¸": 7092,
      "ç¶ĵçĩŁ": 7093,
      "å¾ŀèĢĮæıĲé«ĺ": 7094,
      "å¿Ĺé¡ĺ": 7095,
      "Ñĩ": 7096,
      "èªªåĩº": 7097,
      "Ġpercent": 7098,
      "æľĿé®®": 7099,
      "çµķå°į": 7100,
      "Ġelement": 7101,
      "æª¸æª¬": 7102,
      "æľīäºº": 7103,
      "æĪĳçı¾åľ¨": 7104,
      "ç¨¿": 7105,
      "è®ĬéĿ©": 7106,
      "ulation": 7107,
      "åıĥè§Ģ": 7108,
      "åŃ©åŃĲåĢĳ": 7109,
      "çļĦæĿĲ": 7110,
      "Ð´": 7111,
      "Ġdem": 7112,
      "è¼ĥçĤº": 7113,
      "æııè¿°äºĨ": 7114,
      "²æģ¯": 7115,
      "Ġprim": 7116,
      "ãĤĭ": 7117,
      "æĻīåįĩ": 7118,
      "ior": 7119,
      "èĩ£": 7120,
      "çĶŁåĭķ": 7121,
      "å»ī": 7122,
      "æĺİçŀŃ": 7123,
      "å¯©æŁ¥": 7124,
      "Ġcolor": 7125,
      "éģ²": 7126,
      "ä¸Ńä½¿çĶ¨": 7127,
      "æľĥå½±éŁ¿": 7128,
      "ä½Īå±Ģ": 7129,
      "ç§ĭå¤©": 7130,
      "Ġdetails": 7131,
      "Ġradi": 7132,
      "ä¸Ģåł´": 7133,
      "çŃīå¤ļåĢĭ": 7134,
      "è¡¨è¿°": 7135,
      "åħ¨éĥ¨": 7136,
      "Ġparagraph": 7137,
      "çĺ¤": 7138,
      "èĤ¯å®ļ": 7139,
      "icro": 7140,
      "ivers": 7141,
      "igh": 7142,
      "ãģ¾": 7143,
      "è³½äºĭ": 7144,
      "åı¤åħ¸": 7145,
      "æ©ŁåĻ¨åŃ¸ç¿Ĵæ¼Ķç®Ĺæ³ķ": 7146,
      "çļĦæķĪæŀľ": 7147,
      "å©ļå§»": 7148,
      "Phone": 7149,
      "çļĦä¸ĢäºĽ": 7150,
      "Ġpublic": 7151,
      "ç¿ħ": 7152,
      "éĥİ": 7153,
      "çĭĤ": 7154,
      "æ¨Ļè¨ĺ": 7155,
      "å¹¾ä¹İ": 7156,
      "çĮľ": 7157,
      "eler": 7158,
      "Ġ31": 7159,
      "èĬ³": 7160,
      "çĽ¸åĲĮçļĦ": 7161,
      "éł¸": 7162,
      "åı¯èĥ½åľ¨": 7163,
      "é¦¨": 7164,
      "å®¢æľį": 7165,
      "å£½åĳ½": 7166,
      "39": 7167,
      "Ħæ¬ĸ": 7168,
      "Ġorgan": 7169,
      "ä»¥æıĲé«ĺ": 7170,
      "çĻ¼åĩº": 7171,
      "éĹľèģ¯": 7172,
      "èµ·æºĲ": 7173,
      "çĭ¸": 7174,
      "ember": 7175,
      "ãģ§": 7176,
      "å°Īæ¥ŃçļĦ": 7177,
      "çĮ¶å¤ª": 7178,
      "nect": 7179,
      "çļĦä¸ĸçķĮ": 7180,
      "æĸĳ": 7181,
      "åĲİ": 7182,
      "éĸĭå±ķ": 7183,
      "æ®¼": 7184,
      "ä»£è¬Ŀ": 7185,
      "çļĦé¡ıèī²": 7186,
      "æĽ´æºĸç¢ºåľ°": 7187,
      "essage": 7188,
      "è³¬æĪ¶": 7189,
      "çļĦåŃ£ç¯Ģ": 7190,
      "ä¾Ĩè§£æ±º": 7191,
      "èĥİ": 7192,
      "å§ĭçµĤ": 7193,
      "Ġtransl": 7194,
      "bit": 7195,
      "ĠæĪĳåĢĳ": 7196,
      "æĺ¯éĹľæĸ¼": 7197,
      "inition": 7198,
      "éģ©çĶ¨": 7199,
      "æĺ¯ä¸Ģéĥ¨": 7200,
      "å®Įç¾İ": 7201,
      "çĶŁæĪĲä¸Ģæ®µ": 7202,
      "ĠWhen": 7203,
      "ope": 7204,
      "://": 7205,
      "åĢī": 7206,
      "Ġbest": 7207,
      "result": 7208,
      "çļĦæĹ¥æľŁ": 7209,
      "æģĨæĺŁ": 7210,
      "2000": 7211,
      "çļĦé¦ĸ": 7212,
      "åĪĹåį°": 7213,
      "éĮ¶": 7214,
      "ä¸Ģåı¥è©±": 7215,
      "æĺ¯æĪĳåĢĳ": 7216,
      "ä¸Ńæľī": 7217,
      "æĻĤåĪ»": 7218,
      "æĥľ": 7219,
      "çĻ¼å°Ħ": 7220,
      "èĢĮåľ¨": 7221,
      "æ¨ĤæĦı": 7222,
      "Okay": 7223,
      "ä¸»æĮģ": 7224,
      "å®ĥåı¯ä»¥": 7225,
      "éĥ¨èĲ½": 7226,
      "ç¾İæ´²": 7227,
      "è§Ģçľĭ": 7228,
      "èª¤è§£": 7229,
      "åĢ«æķ¦": 7230,
      "åĬłæĭ¿å¤§": 7231,
      "Con": 7232,
      "æĿ±åįĹ": 7233,
      "ron": 7234,
      "ä»¿": 7235,
      "Ġcustom": 7236,
      "amp": 7237,
      "Ġsitting": 7238,
      "ball": 7239,
      "çļĦçī¹é»ŀ": 7240,
      "æķĺ": 7241,
      "æĽ¹": 7242,
      "è¨Ńè¨Īä¸ĢåĢĭ": 7243,
      "åķĨåºĹ": 7244,
      "ç®¡çĲĨåĴĮ": 7245,
      "é»ĳæļĹ": 7246,
      "è¨Īç®Ĺæ©Łè¦ĸè¦º": 7247,
      "Ġmolecul": 7248,
      "Ġcharacter": 7249,
      "Ġå»ºç«ĭ": 7250,
      "æ³¥": 7251,
      "å¤©çĦ¶": 7252,
      "htt": 7253,
      "ape": 7254,
      "çļĦè©±é¡Į": 7255,
      "}\\": 7256,
      "å°ĸ": 7257,
      "aving": 7258,
      "æ¸ħæ´Ĺ": 7259,
      "Ġ2019": 7260,
      "åĬĩæĥħ": 7261,
      "åľĭçİĭ": 7262,
      "æĦŁæ¸¬åĻ¨": 7263,
      "å°ĪéĸĢ": 7264,
      "Ġhigher": 7265,
      "æľīå®³": 7266,
      "é»ŀéģ¸": 7267,
      "ç¯Ģèĥ½": 7268,
      "èĬĴ": 7269,
      "éŃĤ": 7270,
      "Ġeng": 7271,
      "æĨ²": 7272,
      "åĩ¡": 7273,
      "Ġboo": 7274,
      "2015": 7275,
      "æĻ¯è§Ģ": 7276,
      "è¨ĺå¾Ĺ": 7277,
      "Ġoutside": 7278,
      "åĢĭæĢ§åĮĸçļĦ": 7279,
      "çĭĲçĭ¸": 7280,
      "ï½": 7281,
      "äººç¾¤": 7282,
      "èģ¯ç¶²": 7283,
      "ä¸»è¦ģæĺ¯": 7284,
      "ĠNo": 7285,
      "ä»ĭç´¹äºĨ": 7286,
      "éĨ«åŃ¸å½±åĥı": 7287,
      "å°ºå¯¸": 7288,
      "æĭįæĶĿ": 7289,
      "æĺĤ": 7290,
      "ä¸ĢåĪĩ": 7291,
      "Ġpower": 7292,
      "æ¸¡": 7293,
      "çĴ°ä¿ĿçļĦæĸĩç«ł": 7294,
      "å¥§éģĭ": 7295,
      "çīĽèĤī": 7296,
      "ney": 7297,
      "åħ¬åħ±äº¤éĢļ": 7298,
      "çĽ¸äºĴä½ľçĶ¨": 7299,
      "79": 7300,
      "åı¯ä»¥çĶ¨": 7301,
      "ä½¿çĶ¨èĢħé«Ķé©Ĺ": 7302,
      "çīĩæ®µ": 7303,
      "min": 7304,
      "Ġpract": 7305,
      "Ġplease": 7306,
      "å®¶çļĦ": 7307,
      "éĨĩ": 7308,
      "åīµéĢłä¸ĢåĢĭ": 7309,
      "Ġcommun": 7310,
      "ÙĨ": 7311,
      "Ġcy": 7312,
      "æĭĤ": 7313,
      "åķĨåĭĻ": 7314,
      "æĺĵæĩĤ": 7315,
      "Ġsupport": 7316,
      "åŃķ": 7317,
      "çļĦæģ": 7318,
      "ä¸įæĩīè©²": 7319,
      "ä¸įç¢ºå®ļ": 7320,
      "éĢļçŁ¥": 7321,
      "amples": 7322,
      "Ġstore": 7323,
      "çħİ": 7324,
      "åįĩç´ļ": 7325,
      "Ġadv": 7326,
      "Ġgreen": 7327,
      "Ġéļ¨èĳĹ": 7328,
      "åĴĮè¡ĮçĤº": 7329,
      "Ġwait": 7330,
      "ä¸¦éĿŀ": 7331,
      "éĢĻç¨®æĥħæ³ģä¸ĭ": 7332,
      "Ġshirt": 7333,
      "æºĸç¢ºæĢ§": 7334,
      "åį±å®³": 7335,
      "pect": 7336,
      "çļĦåĲįåŃĹ": 7337,
      "2018": 7338,
      "Ġ2022": 7339,
      "ç§»æ°ĳ": 7340,
      "new": 7341,
      "ĠÃ·": 7342,
      "çļĦæĸĩåĮĸ": 7343,
      "ified": 7344,
      "æµ·æĭĶ": 7345,
      "æľįè£Ŀ": 7346,
      "ç¯ĩéĹľæĸ¼": 7347,
      "Ġ90": 7348,
      "çİ»çĴĥ": 7349,
      "æĪĲçĨŁ": 7350,
      "åħĪçĶŁ": 7351,
      "çĻĮçĹĩ": 7352,
      "Ġå¤ļ": 7353,
      "å¯ĵ": 7354,
      "æİĺ": 7355,
      "å¥½èĻķ": 7356,
      "æĺ¯ä¸ĢåĲį": 7357,
      "rix": 7358,
      "çļĦæİ¢": 7359,
      "è¡Ĺéģĵ": 7360,
      "Ġelectric": 7361,
      "ght": 7362,
      "æ©Łçİĩ": 7363,
      "æĻºæħ§æīĭæ©Ł": 7364,
      "è£ĿåĤĻ": 7365,
      "è»įéļĬ": 7366,
      "ixed": 7367,
      "ç¡¬é«Ķ": 7368,
      "input": 7369,
      "Ġsun": 7370,
      "çĽĪ": 7371,
      "Ġreal": 7372,
      "olution": 7373,
      "éĽľèªĮ": 7374,
      "Ġselect": 7375,
      "çĩĥçĩĴ": 7376,
      "Ġphysics": 7377,
      "Ġconditions": 7378,
      "âĦ": 7379,
      "çļĦä½ľçĶ¨": 7380,
      "çļĦéģİç¨ĭä¸Ń": 7381,
      "å¤§éĥ¨åĪĨ": 7382,
      "Ġdel": 7383,
      "å°ıç´ħ": 7384,
      "å»£æĴŃ": 7385,
      "èĦĨ": 7386,
      "æľīé»ŀ": 7387,
      "çĽ®çļĦæĺ¯": 7388,
      "çķ«éĿ¢": 7389,
      "ä»¥åħ¶": 7390,
      "Ġpe": 7391,
      "å¾Įæŀľ": 7392,
      "2010": 7393,
      "Ġabs": 7394,
      "GPT": 7395,
      "å¥ī": 7396,
      "æĬĵ": 7397,
      "rol": 7398,
      "é¤ļ": 7399,
      "æº«å®¤æ°£é«Ķ": 7400,
      "åı¯ä»¥å¹«åĬ©éĨ«çĶŁ": 7401,
      "Ġclear": 7402,
      "èĩ¥": 7403,
      "åľ°åľĸ": 7404,
      "ãģ¯": 7405,
      "å®¢è§Ģ": 7406,
      "ype": 7407,
      "çļĦæ·±å±¤": 7408,
      "atures": 7409,
      "ä¼ı": 7410,
      "æ®¿": 7411,
      "aves": 7412,
      "åģļå¥½": 7413,
      "è´Ī": 7414,
      "Ġreaction": 7415,
      "64": 7416,
      "åĴĮæĻĤéĸĵ": 7417,
      "æ¼ł": 7418,
      "AIåľ¨": 7419,
      "']": 7420,
      "II": 7421,
      "Ġaffect": 7422,
      "heck": 7423,
      "éĢĻå®¶": 7424,
      "åħħéĽ»": 7425,
      "Ġindic": 7426,
      "æĹ¥å¸¸çĶŁæ´»ä¸Ń": 7427,
      "Ġinterest": 7428,
      "ead": 7429,
      "æľīä»»ä½ķ": 7430,
      "éĢĻæĻĤåĢĻ": 7431,
      "æĽ´æıĽ": 7432,
      "åĬłçĨ±": 7433,
      "æķ¸åĢ¼": 7434,
      "çĩ¥": 7435,
      "èĩ´åĬĽæĸ¼": 7436,
      "pper": 7437,
      "Ġnext": 7438,
      "éĢĻæ¨£æĪĳ": 7439,
      "æ©Ħæ¬ĸ": 7440,
      "å°±æ¥Ńæ©Łæľĥ": 7441,
      "çļĦæĦĽæĥħ": 7442,
      "iod": 7443,
      "éĽķ": 7444,
      "å¹´ä»½": 7445,
      "å¦ĤæŀľæĪĳåĢĳ": 7446,
      "èģļæľĥ": 7447,
      "ä¸¦å°ĩåħ¶": 7448,
      "ental": 7449,
      "æ·º": 7450,
      "åħĥä»¶": 7451,
      "ä¸ĸçķĮçļĦ": 7452,
      "éĪķ": 7453,
      "å»¢æ£Ħ": 7454,
      "çļĦæ¶Ī": 7455,
      "Ġmom": 7456,
      "å°ıåŀĭ": 7457,
      "æ°£è±¡": 7458,
      "èĪĪå¥®": 7459,
      "Ġchanges": 7460,
      "Ġsentences": 7461,
      "do": 7462,
      "æĬ¼": 7463,
      "è¼Ŀ": 7464,
      "éģĶæĪĲ": 7465,
      "æµģåĭķ": 7466,
      "ãģ«": 7467,
      "äºĮåįģ": 7468,
      "èĩªçĦ¶çĴ°å¢ĥ": 7469,
      "Ġsugg": 7470,
      "Ġä¸įéģİ": 7471,
      "ä¸Ł": 7472,
      "Ġaverage": 7473,
      "ä¾ĨæıĲé«ĺ": 7474,
      "Ġmade": 7475,
      "ouble": 7476,
      "åĤ³æī¿": 7477,
      "èĢģå¹´": 7478,
      "éĿ¢èĩ¨èĳĹ": 7479,
      "37": 7480,
      "åħĦ": 7481,
      "Ġ\"\"\"": 7482,
      "éľĢè¦ģåľ¨": 7483,
      "éģ¿åħįä½¿çĶ¨": 7484,
      "Ġapproach": 7485,
      "Ġsuggest": 7486,
      "çĽĨ": 7487,
      "æŃ¤æĻĤ": 7488,
      "\".": 7489,
      "uit": 7490,
      "åĴĮå°į": 7491,
      "æĺ¯æĪĳ": 7492,
      "æ¯Ķäºŀ": 7493,
      "ocity": 7494,
      "Ġprovided": 7495,
      "ä½µçĤº": 7496,
      "åĲĪçĲĨçļĦ": 7497,
      "å¿½è¦ĸ": 7498,
      "æıĲä¾Ľå¹«åĬ©": 7499,
      "èªįåı¯": 7500,
      "æ¼Ķåĩº": 7501,
      "è©ķåĪĨ": 7502,
      "åĪĿå§ĭ": 7503,
      "åķŁçĶ¨": 7504,
      "ÑģÑĤ": 7505,
      "ç«¶çĪŃåĬĽ": 7506,
      "Ġinfl": 7507,
      "åĸª": 7508,
      "åĲĦèĩª": 7509,
      "å¦®": 7510,
      "æİ¡åıĸè¡Įåĭķ": 7511,
      "Ġrelations": 7512,
      "çļĦæĦŁåıĹ": 7513,
      "è·Łè¹¤": 7514,
      "åĴĮä½¿çĶ¨": 7515,
      "Ġfrequ": 7516,
      "è¢ĸ": 7517,
      "å®ĥåĢĳåľ¨": 7518,
      "èģ·æ¥ŃçĻ¼å±ķ": 7519,
      "sin": 7520,
      "çļĦä¸įåĲĮ": 7521,
      "ä¸Ńåħ±": 7522,
      "ä¾Ĩè¨Īç®Ĺ": 7523,
      "æºª": 7524,
      "éĢĻäºĽè³ĩè¨Ĭ": 7525,
      "æł¼èĺŃ": 7526,
      "åįĢå¡ĬéıĪæĬĢè¡ĵ": 7527,
      "ware": 7528,
      "ann": 7529,
      "Ġchem": 7530,
      "eter": 7531,
      "èŃ¦æĸ¹": 7532,
      "å°ĳæķ¸æ°ĳæĹı": 7533,
      "Ġdig": 7534,
      "arget": 7535,
      "åħ¶å¯¦": 7536,
      "æº¯": 7537,
      "èĳ£": 7538,
      "Ġexist": 7539,
      "Ġenviron": 7540,
      "åıĹæŃ¡è¿İçļĦ": 7541,
      "çļĦæº«åº¦": 7542,
      "çļĦåħī": 7543,
      "atio": 7544,
      "Ġwrit": 7545,
      "Ġmil": 7546,
      "çī©æµģ": 7547,
      "Ġthose": 7548,
      "Ġshort": 7549,
      "æĪ¿å±ĭ": 7550,
      "Ġfactor": 7551,
      "anation": 7552,
      "ç·»": 7553,
      "åº¦éģİ": 7554,
      "è½īç§»": 7555,
      "æ¯įè¦ª": 7556,
      "é³¥é¡ŀ": 7557,
      "çĸĳåķı": 7558,
      "Ġfeel": 7559,
      "like": 7560,
      "ç¾©å¤§åĪ©éºµ": 7561,
      "é´¨": 7562,
      "æĭ¼å¯«": 7563,
      "88": 7564,
      "åı¯èĥ½åĮħæĭ¬": 7565,
      "æĥħå¢ĥ": 7566,
      "åĻ¸": 7567,
      "ç¤¾æľĥä¸Ń": 7568,
      "çĽ´å¾ĳ": 7569,
      "çĶ·åŃ©": 7570,
      "ä¼°è¨Ī": 7571,
      "æ´ĭèĶ¥": 7572,
      "å¤ıå¤©çļĦ": 7573,
      "Ġrepresent": 7574,
      "æ¯«ç±³": 7575,
      "ĠéĤĦè¦ģæ³¨æĦı": 7576,
      "down": 7577,
      "çĽľ": 7578,
      "Ġben": 7579,
      "æĽ´é«ĺæķĪ": 7580,
      "çĶŁæĪĲä¸ĢåĢĭéĹľæĸ¼": 7581,
      "Ġincrease": 7582,
      "çļĦæ¡": 7583,
      "ä½łæľĥ": 7584,
      "Ġlast": 7585,
      "èīĩ": 7586,
      "éĥ¨ç½²": 7587,
      "Ġcover": 7588,
      "Ġlower": 7589,
      "å®ĥåľ¨": 7590,
      "Ġvers": 7591,
      "ä¸Ģå¼µ": 7592,
      "æĺ¯å°į": 7593,
      "è§£æĶ¾": 7594,
      "ç¸½é«Ķ": 7595,
      "åĲĮæĻĤä¿ĿæĮģ": 7596,
      "æ¦ľ": 7597,
      "Ġbetter": 7598,
      "02": 7599,
      "SE": 7600,
      "çļĦéĥ¨åĪĨ": 7601,
      "åĪĨæĶ¯": 7602,
      "éĿ¢è©¦": 7603,
      "ï¼ī-": 7604,
      "æĦıå¤ĸ": 7605,
      "éĥ½åı¯ä»¥": 7606,
      "add": 7607,
      "Ġrandom": 7608,
      "SQL": 7609,
      "çļĦç¨ĭå¼ıç¢¼": 7610,
      "æĸĩçī©": 7611,
      "åĦŁ": 7612,
      "éħª": 7613,
      "ĠâĪ": 7614,
      "`ï¼Į": 7615,
      "æİ¨éĢ²": 7616,
      "Ġweight": 7617,
      "ĠOr": 7618,
      "æıĲåıĸåĩº": 7619,
      "çļĦå¤§å°ı": 7620,
      "çĪĨçĤ¸": 7621,
      "âĶĢâĶĢ": 7622,
      "cos": 7623,
      "çļĦæľįåĭĻ": 7624,
      "ream": 7625,
      "çļĦæª": 7626,
      "èĢĮä¸į": 7627,
      "çµ¦åĩºä¸ĢåĢĭ": 7628,
      "æ³¨æĦıåĬĽ": 7629,
      "Ġcompon": 7630,
      "éĩıåŃĲè¨Īç®Ĺ": 7631,
      "å¤¥": 7632,
      "ä¸Ģåı¥": 7633,
      "iness": 7634,
      "ering": 7635,
      "è©Ĳ": 7636,
      "éłĴ": 7637,
      "æĪĸä¸į": 7638,
      "ĠApp": 7639,
      "ä¸Ģéģĵ": 7640,
      "æĹ¥é£Ł": 7641,
      "è¡Ģç®¡": 7642,
      "âĦĥ": 7643,
      "çļĦéĢŁåº¦": 7644,
      "åĢĭæľĪ": 7645,
      "Ġopp": 7646,
      "éĽ»åĭķ": 7647,
      "æĺİçĻ½": 7648,
      "Ġgrow": 7649,
      "å¾ŀéĢĻç¯ĩæĸĩç«ł": 7650,
      "ĠWhat": 7651,
      "æ¤ħ": 7652,
      "é¬¼": 7653,
      "çļĦæĬķè³ĩ": 7654,
      "äººéļĽéĹľä¿Ĥ": 7655,
      "çļĨ": 7656,
      "åº¦åģĩ": 7657,
      "Ġalways": 7658,
      "play": 7659,
      "ç´ĢéĮĦ": 7660,
      "å¹²æĵ¾": 7661,
      "Ġè¼¸åĩº": 7662,
      "åĴĮç¶ĵæ¿Ł": 7663,
      "æĸĩçį»": 7664,
      "åĻª": 7665,
      "èĩ¨åºĬ": 7666,
      "çĶ¨æ°´": 7667,
      "Ġhist": 7668,
      "è¼»å°Ħ": 7669,
      "IT": 7670,
      "omic": 7671,
      "çļĦæķ¸åŃ¸": 7672,
      "ounds": 7673,
      "è²ĿçĪ¾": 7674,
      "book": 7675,
      "éģĻ": 7676,
      "çĶŁçĲĨ": 7677,
      "çī©èģ¯ç¶²": 7678,
      "äº¤æıĽ": 7679,
      "æĿ±åĮĹ": 7680,
      "æ²³åįĹ": 7681,
      "å½±åĥıèŃĺåĪ¥": 7682,
      "Ġequal": 7683,
      "æħ¢æħ¢": 7684,
      "éł»éģĵ": 7685,
      "å»Ī": 7686,
      "åħ¶ä¸ŃåĮħæĭ¬": 7687,
      "çļĦæĶĿ": 7688,
      "âĤĥ": 7689,
      "æĴ°å¯«": 7690,
      "gin": 7691,
      "elocity": 7692,
      "oll": 7693,
      "2013": 7694,
      "ensity": 7695,
      "åįĥåħĭ": 7696,
      "Ġindivid": 7697,
      "Ġincluding": 7698,
      "Ġanaly": 7699,
      "å±¤éĿ¢": 7700,
      "Ġgrav": 7701,
      "åĩĮ": 7702,
      "éľľ": 7703,
      "ĠInt": 7704,
      "oney": 7705,
      "çļĦåĲįç¨±": 7706,
      "éĥ¨éļĬ": 7707,
      "èĭ±éĩĮ": 7708,
      "éĢļå¸¸åľ¨": 7709,
      "ä¿ĿèŃ·æĪĳåĢĳçļĦ": 7710,
      "ource": 7711,
      "Ġinteract": 7712,
      "lean": 7713,
      "Ġfile": 7714,
      "ç¿¼": 7715,
      "åĪĹèĪī": 7716,
      "ĠThen": 7717,
      "éģ¸æĵĩä¸ĢåĢĭ": 7718,
      "ables": 7719,
      "çģ«æĺŁ": 7720,
      "åŁºæľ¬çļĦ": 7721,
      "Ġnegative": 7722,
      "ëĭ": 7723,
      "æĺ¯å¦Ĥä½ķ": 7724,
      "éĢĻæ¬¾": 7725,
      "Ġgame": 7726,
      "è®ĵä»ĸåĢĳ": 7727,
      "æĸĩæľ¬åħ§å®¹": 7728,
      "èĬ±è²»": 7729,
      "å¥§æŀĹ": 7730,
      "çŁ©éĻ£": 7731,
      "ç¯©éģ¸": 7732,
      "time": 7733,
      "yle": 7734,
      "å®ħ": 7735,
      "åĬį": 7736,
      "æļ´åĬĽ": 7737,
      "Ġwords": 7738,
      "Ø±": 7739,
      "ĠéľĢè¦ģ": 7740,
      "æĺĮ": 7741,
      "åħ©äºº": 7742,
      "çļĦæ°Ľåľį": 7743,
      "çĸ¼çĹĽ": 7744,
      "Ġu": 7745,
      "æĸ¤": 7746,
      "çĶ¨åĵģ": 7747,
      "ä¸įå°ĳ": 7748,
      "æīİ": 7749,
      "Ġbase": 7750,
      "åłµ": 7751,
      "èĻ¹": 7752,
      "stit": 7753,
      "åĮħè£Ŀ": 7754,
      "å¦Ĥæŀľæĺ¯": 7755,
      "irm": 7756,
      "Ġimpro": 7757,
      "æĺ¯äººé¡ŀ": 7758,
      "ä¸įèī¯": 7759,
      "ä½łè¦ºå¾Ĺ": 7760,
      "æŃ£æĸ¹": 7761,
      "åįĹäº¬": 7762,
      "çħ©": 7763,
      "angle": 7764,
      "é¼»": 7765,
      "çĶŁåĳ½çļĦ": 7766,
      "æĶ¾ç½®": 7767,
      "æİĴåĲį": 7768,
      "ï½ŀ": 7769,
      "åı¯ä»¥æ¸Ľå°ĳ": 7770,
      "æĥĳ": 7771,
      "åįĶæľĥ": 7772,
      "Ġstreet": 7773,
      "ä½Ĩä¸įéĻĲæĸ¼": 7774,
      "ķèī²": 7775,
      "çļĦåĬŁèĥ½": 7776,
      "Ġfour": 7777,
      "Ġinitial": 7778,
      "çµĦæĪĲçļĦ": 7779,
      "ç§ĳæĻ®æĸĩç«ł": 7780,
      "éĩİçĶŁåĭķçī©": 7781,
      "ä¹Łå°ĩ": 7782,
      "Ġlife": 7783,
      "é¢¨æļ´": 7784,
      "èĭ±å¯¸": 7785,
      "çĹħäºº": 7786,
      "æĿ±éĥ¨": 7787,
      "Ġplace": 7788,
      "çļĦå½¢å¼ı": 7789,
      "å¤¾": 7790,
      "ories": 7791,
      "åŃĲåĴĮ": 7792,
      "è²§åĽ°": 7793,
      "DP": 7794,
      "Ġå°į": 7795,
      "åŁºçĿ£": 7796,
      "åĸ®åħĥ": 7797,
      "rag": 7798,
      "å¯Įæľī": 7799,
      "Ġcompany": 7800,
      "åįĥç±³": 7801,
      "ĠMaybe": 7802,
      "åıĹåĤ·": 7803,
      "æģ°": 7804,
      "åĪĹè¡¨ä¸Ń": 7805,
      "anced": 7806,
      "Ġcells": 7807,
      "ele": 7808,
      "åĬłå·¥": 7809,
      "ç¯Ģçľģ": 7810,
      "æ¼Ķè¬Ľ": 7811,
      "èĥº": 7812,
      "å¥§æŀĹåĮ¹": 7813,
      "ï¼Į`": 7814,
      "åĴĮäººé¡ŀ": 7815,
      "åľ¨ä½¿çĶ¨": 7816,
      "Ġsure": 7817,
      "Ġcaus": 7818,
      "icle": 7819,
      "è¿Ń": 7820,
      "åħĭèĺŃ": 7821,
      "è¶ħè¶Ĭ": 7822,
      "æĶĿå½±": 7823,
      "çļĦæĹ¥å¸¸": 7824,
      "æŃ¸é¡ŀçĤº": 7825,
      "åľ¨ç¾İåľĭ": 7826,
      "PI": 7827,
      "é·": 7828,
      "Ġä½Ĩ": 7829,
      "äººå·¥æĻºæħ§çļĦçĻ¼å±ķ": 7830,
      "å°İèĩ´äºĨ": 7831,
      "å»£æ³ĽçļĦ": 7832,
      "ww": 7833,
      "æľĥæľī": 7834,
      "æĽ´é«ĺçļĦ": 7835,
      "èªªè©±": 7836,
      "èı¸": 7837,
      "çİ©åħ·": 7838,
      "éļ±ç§ģä¿ĿèŃ·": 7839,
      "API": 7840,
      "Ġoxygen": 7841,
      "}\")": 7842,
      "Ġç¸½çµĲ": 7843,
      "çļĦéķ·åº¦": 7844,
      "åĲĮæĦı": 7845,
      "ots": 7846,
      "Ġstates": 7847,
      "oss": 7848,
      "éĻ¤æŃ¤": 7849,
      "clusion": 7850,
      "Ġphot": 7851,
      "Ġfactors": 7852,
      "Ġå¾ŀ": 7853,
      "åĴĮçŃĶæ¡Ī": 7854,
      "ä¸įè¶ħéģİ": 7855,
      "åīĬ": 7856,
      "ä¹Łæĩīè©²": 7857,
      "Ġgive": 7858,
      "çĭ¼": 7859,
      "quence": 7860,
      "åģ¥åº·åĴĮ": 7861,
      "æĺ¯åĲ¦æŃ£ç¢º": 7862,
      "Ġspace": 7863,
      "å¯ĮåĲ«": 7864,
      "çļĦæĿĲæĸĻ": 7865,
      "ä¸ŃåŃ¸": 7866,
      "lex": 7867,
      "Ġwind": 7868,
      "Ġinf": 7869,
      "åģ½": 7870,
      "Ġrele": 7871,
      "ä»£åħ¥": 7872,
      "èıĩ": 7873,
      "ãģª": 7874,
      "åı¯ä»¥å¹«åĬ©æĤ¨": 7875,
      "é³³": 7876,
      "çļĦæ¨Ĥ": 7877,
      "å¶¼": 7878,
      "å´Ĺä½į": 7879,
      "åĪ°çļĦ": 7880,
      "ä»¥ä¸ĭæŃ¥é©Ł": 7881,
      "å»£éĹĬ": 7882,
      "éĩĮæĸ¯": 7883,
      "150": 7884,
      "è§£éĩĭä¸Ģä¸ĭ": 7885,
      "å¹³çŃīåĴĮ": 7886,
      "åĪĨåĪ¥æĺ¯": 7887,
      "ä½Ĳ": 7888,
      "åĩºçı¾åľ¨": 7889,
      "æ²Ļæĭī": 7890,
      "Ġdecre": 7891,
      "æĮĩä»¤ç¢¼": 7892,
      "'.": 7893,
      "gor": 7894,
      "åħ¬æ°ĳ": 7895,
      "ä¹Łä¸į": 7896,
      "å¤©é«Ķ": 7897,
      "è¨Ńæľī": 7898,
      "åıĸæ¶Ī": 7899,
      "Ġconvert": 7900,
      "èĭ±å°º": 7901,
      "äººåĢĳå°į": 7902,
      "ector": 7903,
      "æŃĮæīĭ": 7904,
      "most": 7905,
      "æĽ¬": 7906,
      "è¥¿æĸ¹": 7907,
      "ä¿®æŃ£": 7908,
      "Ġneeds": 7909,
      "è¨Ĥåĸ®": 7910,
      "?\"": 7911,
      "ä¸Ģéĥ¨": 7912,
      "éļĭ": 7913,
      "åħ±é³´": 7914,
      "åģļèµ·": 7915,
      "pping": 7916,
      "ĠUse": 7917,
      "ĠJohn": 7918,
      "éĽ²ç«¯": 7919,
      "æ°§æ°£": 7920,
      "åı«åģļ": 7921,
      "çĨŁæĤī": 7922,
      "42": 7923,
      "Ġè³ĩæĸĻ": 7924,
      "é»ŀçļĦ": 7925,
      "Ġ500": 7926,
      "è½īåŀĭ": 7927,
      "æ¹¯å§Ĩ": 7928,
      "è¬Ľè¿°äºĨ": 7929,
      "Ġfinished": 7930,
      "ä¸Ģæľ¬": 7931,
      "istance": 7932,
      "Ġexact": 7933,
      "ä¸Ńèı¯æ°ĳåľĭ": 7934,
      "å¹½é»ĺ": 7935,
      "ext": 7936,
      "éĢĻéłħ": 7937,
      "æ¼ĶåĶ±": 7938,
      "plement": 7939,
      "è£½åĵģ": 7940,
      "åĮħåĲ«äºĨ": 7941,
      "ĠÐ²": 7942,
      "å°ĩä»¥ä¸ĭåı¥åŃĲ": 7943,
      "lor": 7944,
      "Ùħ": 7945,
      "rox": 7946,
      "çķ¶ä½ł": 7947,
      "æ·ĩ": 7948,
      "è¦ĸè§Ĵ": 7949,
      "Ġindividual": 7950,
      "ä»¥å¹«åĬ©": 7951,
      "Ġbody": 7952,
      "key": 7953,
      "ellow": 7954,
      "é¡¯å¾Ĺ": 7955,
      "è²¡å¯Į": 7956,
      "éĻ¤æŃ¤ä¹ĭå¤ĸ": 7957,
      "åĴĮéģĵå¾·": 7958,
      "åĻ¬": 7959,
      "æ½ĽåĬĽ": 7960,
      "åī©ä¸ĭçļĦ": 7961,
      "ÃŃ": 7962,
      "æĺ¯éĢļéģİ": 7963,
      "èħ¹": 7964,
      "éħįåĲĪ": 7965,
      "ĠNew": 7966,
      "Ġaccur": 7967,
      "Answer": 7968,
      "å½İ": 7969,
      "Ġdat": 7970,
      "ety": 7971,
      "è¢«åĳĬ": 7972,
      "ç¸½åħ±": 7973,
      "çľĭåĪ°äºĨ": 7974,
      "æľªä¾ĨçĻ¼å±ķ": 7975,
      "æĺ¯åĲ¦ç¬¦åĲĪ": 7976,
      "Ġflo": 7977,
      "2017": 7978,
      "æĶ¹éĿ©": 7979,
      "æŃ·åı²ä¸Ĭ": 7980,
      "çĩŁéĢł": 7981,
      "åĦĢå¼ı": 7982,
      "å»ļæĪ¿": 7983,
      "å¥§æŀĹåĮ¹åħĭ": 7984,
      "65": 7985,
      "è¥¿éĥ¨": 7986,
      "æĮīéĪķ": 7987,
      "æĪĲåĬŁçļĦ": 7988,
      "åº§æ¨Ļ": 7989,
      "value": 7990,
      "go": 7991,
      "èĥ½å¤łåľ¨": 7992,
      "Ġgoes": 7993,
      "æ¯ıåĢĭäººéĥ½æĩīè©²": 7994,
      "Ġchoice": 7995,
      "itude": 7996,
      "IP": 7997,
      "æĪĪ": 7998,
      "ä¸įå¤ł": 7999,
      "åĮĸçŁ³": 8000,
      "ä½¿çĶ¨èĢħçļĦéľĢæ±Ĥ": 8001,
      "æ¬¡æķ¸": 8002,
      "éłĲè¨Ī": 8003,
      "Ġ2010": 8004,
      "éĢĻæĺ¯åĽłçĤº": 8005,
      "æľĢè¿ĳæľīæ²Ĵæľī": 8006,
      "Ġtakes": 8007,
      "ç§ĭå¤©çļĦ": 8008,
      "Ġfront": 8009,
      "This": 8010,
      "åľ°ä¸ĭ": 8011,
      "çī©çļĦ": 8012,
      "Ġhim": 8013,
      "å°ıçµĦ": 8014,
      "ä¸īç¨®": 8015,
      "æ¸Ľåİ»": 8016,
      "ãģ¨": 8017,
      "èĭ±éĽĦ": 8018,
      "Ġ195": 8019,
      "åĢĻéģ¸": 8020,
      "ç§ĳæĬĢåīµæĸ°": 8021,
      "æĳĺ": 8022,
      "éºµç²ī": 8023,
      "uck": 8024,
      "å¿łèªł": 8025,
      "(\\": 8026,
      "åı¯ä»¥çĶ¨ä¾Ĩ": 8027,
      "è¶Ļ": 8028,
      "å¡µ": 8029,
      "çĸı": 8030,
      "åĲĦåľ°": 8031,
      "æĢİéº¼æ¨£": 8032,
      "çļĦæĹħè¡Į": 8033,
      "éįĭä¸Ń": 8034,
      "ä½ľçĤºä¸ĢåĢĭAI": 8035,
      "ters": 8036,
      "Ġion": 8037,
      "ä¾·": 8038,
      "åŃĲè£¡": 8039,
      "Ġmaint": 8040,
      "æľīæĻĤåĢĻ": 8041,
      "æıĲäº¤": 8042,
      "æĽ´å¤§çļĦ": 8043,
      "ote": 8044,
      "Ġplan": 8045,
      "è´Ĭ": 8046,
      "è¾¦åħ¬å®¤": 8047,
      "çļĦæ»": 8048,
      "idation": 8049,
      "è³ĩæĸĻéĢ²è¡Į": 8050,
      "ä¸ĢäºĽäºº": 8051,
      "éŃı": 8052,
      "çĳ°": 8053,
      "å½¢å¼ıçļĦ": 8054,
      "Ġâľħ": 8055,
      "éģİæ¿¾": 8056,
      "ç³§": 8057,
      "ç´°èıĮ": 8058,
      "ç©įç´¯": 8059,
      "æĶ¿åºľåĴĮ": 8060,
      "éł»ç¹ģ": 8061,
      "44": 8062,
      "cing": 8063,
      "ä¸ĺ": 8064,
      "æĪĴ": 8065,
      "éĮ«": 8066,
      "è¨±å¤ļäºº": 8067,
      "çļĦæ©Łçİĩ": 8068,
      "é¨°": 8069,
      "Ġfigures": 8070,
      "How": 8071,
      "def": 8072,
      "Ġè¨Īç®Ĺ": 8073,
      "å¥´": 8074,
      "itle": 8075,
      "Ġbro": 8076,
      "è£½æĪĲ": 8077,
      "æº«é¦¨": 8078,
      "echan": 8079,
      "æ·±éģłçļĦå½±éŁ¿": 8080,
      "éŃħåĬĽ": 8081,
      "çļĦåŃĺåľ¨": 8082,
      "çį¸": 8083,
      "å¹«æĪĳæĥ³": 8084,
      "Ġelectron": 8085,
      "verse": 8086,
      "éģŃåıĹ": 8087,
      "æĹ¥çĽĬ": 8088,
      "oles": 8089,
      "å¤ĸäº¤": 8090,
      "å´ĩ": 8091,
      "ken": 8092,
      "åĴĮåŃ¸ç¿Ĵ": 8093,
      "ä½Ĩä¹Ł": 8094,
      "æ¯ıä¸ĢåĢĭ": 8095,
      "æĸ¯æŀĹ": 8096,
      "Ġvelocity": 8097,
      "å»ºèŃ°æĤ¨": 8098,
      "æĢĿèĢĥéģİç¨ĭ": 8099,
      "å»£æ³ĽæĩīçĶ¨": 8100,
      "éĮ¯èª¤çļĦ": 8101,
      "ches": 8102,
      "åĤ¬": 8103,
      "ilar": 8104,
      "åĮħæĭ¬ä½Ĩä¸įéĻĲæĸ¼": 8105,
      "åĲ¦åīĩ": 8106,
      "è¾¯": 8107,
      "åı¯èĥ½æľĥå°į": 8108,
      "çĻ¼çı¾äºĨ": 8109,
      "æ³¢åĭķ": 8110,
      "è¿´æŃ¸": 8111,
      "éĳ°": 8112,
      "Ġsteps": 8113,
      "å¬°åħĴ": 8114,
      "CD": 8115,
      "gre": 8116,
      "éģ¸æĵĩéģ©åĲĪ": 8117,
      "åįģäºĮ": 8118,
      "å®£åĳĬ": 8119,
      "è¬¹æħİ": 8120,
      "az": 8121,
      "div": 8122,
      "Ġ1000": 8123,
      "éĽ»åĬĽ": 8124,
      "æĻ¯èī²": 8125,
      "çĦ¶å¾ĮéĢ²è¡Į": 8126,
      "è¤²": 8127,
      "èĶĶ": 8128,
      "Ġâī": 8129,
      "è¶Ĭä¾Ĩè¶Ĭå¤ļ": 8130,
      "çļĦæĮĩå°İ": 8131,
      "æĹĭè½ī": 8132,
      "âĢ¦âĢ¦": 8133,
      "èĺ¿èĶĶ": 8134,
      "Ġsingle": 8135,
      "ser": 8136,
      "çĲĨçĶ±": 8137,
      "æĪĸç¼º": 8138,
      "ä¸¦çµ¦åĩº": 8139,
      "olar": 8140,
      "æī¾åĪ°äºĨ": 8141,
      "èıľé¤ļ": 8142,
      "èĢĲå¿ĥ": 8143,
      "Ġterms": 8144,
      "çļĦæ¢Ŀä»¶": 8145,
      "éŁĮ": 8146,
      "ĠPlease": 8147,
      "æĹıè£Ķ": 8148,
      "éĹľéįµé»ŀ": 8149,
      "Ġnecessarily": 8150,
      "Ġnow": 8151,
      "çµ±æ²»": 8152,
      "èŃ°åĵ¡": 8153,
      "ç©įåĪĨ": 8154,
      "ially": 8155,
      "åħ¸åŀĭ": 8156,
      "åĨ°æ·ĩ": 8157,
      "èĬ¬èĺŃ": 8158,
      "ĠEnglish": 8159,
      "åĨ°æ·ĩæ·ĭ": 8160,
      "Ġopen": 8161,
      "åĩºèī²": 8162,
      "åīµæĸ°çļĦ": 8163,
      "Ġproject": 8164,
      "Ġ72": 8165,
      "Ġhead": 8166,
      "åľĺéļĬæĪĲåĵ¡": 8167,
      "èĥ¡æ¤Ĵ": 8168,
      "max": 8169,
      "Ġæ¬¡": 8170,
      "éĢĻä¹Ł": 8171,
      "æĸĩåĮĸèĥĮæĻ¯": 8172,
      "çĨ±å¸¶": 8173,
      "æīĵçł´": 8174,
      "æ¯ıåĢĭäººçļĦ": 8175,
      "He": 8176,
      "åĬ£": 8177,
      "çı¾æľī": 8178,
      "æĮĩç¤º": 8179,
      "åĸľæĦĽ": 8180,
      "å°ĬéĩįåĴĮ": 8181,
      "light": 8182,
      "çļĦåħĥç´ł": 8183,
      "éĸĭå¿ĥ": 8184,
      "åĤ³èªª": 8185,
      "Ġunit": 8186,
      "è²łæĵĶ": 8187,
      "izing": 8188,
      "²ç½°": 8189,
      "å¤§æľĥ": 8190,
      "åĲĮæŃ¥": 8191,
      "Ġrefer": 8192,
      "æĩ¶": 8193,
      "çĪĨçĻ¼": 8194,
      "AC": 8195,
      "çĻ¼éĽ»": 8196,
      "iver": 8197,
      "è³ĩè¨ĬåĴĮ": 8198,
      "è¥¿åħĥ": 8199,
      "por": 8200,
      "Ġfocus": 8201,
      "å°įåħ¶": 8202,
      "ä¸¦éĢ²è¡Į": 8203,
      "éĥŃ": 8204,
      "çĽ¸çŃī": 8205,
      "ãģĮ": 8206,
      "æĪĳåĢĳåı¯ä»¥ä½¿çĶ¨": 8207,
      "éĢłæĪĲäºĨ": 8208,
      "åĵĪåĪ©": 8209,
      "Ġsimple": 8210,
      "åı¯éĿłæĢ§": 8211,
      "GB": 8212,
      "_{\\": 8213,
      "æīĢéľĢçļĦ": 8214,
      "åĤ¾åĲĳæĸ¼": 8215,
      "à¹": 8216,
      "å®ı": 8217,
      "çļĦæ¤": 8218,
      "Ġcat": 8219,
      "çĲ³": 8220,
      "åı¯ä»¥åĺĹè©¦": 8221,
      "alf": 8222,
      "åģµ": 8223,
      "æķĻç·´": 8224,
      "ä»¥åıĬå¦Ĥä½ķ": 8225,
      "éĢıéľ²èº«ä»½": 8226,
      "Ġåŀĭ": 8227,
      "åĪĨåī²": 8228,
      "ç³»çµ±ä¸Ń": 8229,
      "ãģŁ": 8230,
      "ĠMethod": 8231,
      "æĶ¯æı´åĴĮ": 8232,
      "ç¥ŀç§ĺçļĦ": 8233,
      "æ´©éľ²": 8234,
      "ambda": 8235,
      "98": 8236,
      "ought": 8237,
      "æĽ´æĶ¹": 8238,
      "èĪĩäººé¡ŀ": 8239,
      "ç¬¬äºĶ": 8240,
      "çĽ®éĮĦ": 8241,
      "éĿŀå¸¸å¥½": 8242,
      "Ġjour": 8243,
      "å¾®é¢¨": 8244,
      "Ġtrying": 8245,
      "å®¶åľĴ": 8246,
      "éĽ»åĻ¨": 8247,
      "çĪĲ": 8248,
      "çĶŁæ´»ä¸ŃçļĦ": 8249,
      "èħº": 8250,
      "æĽ¸è¨ĺ": 8251,
      "å°Ĭæķ¬": 8252,
      "ç·Ĭå¯Ĩ": 8253,
      "approx": 8254,
      "Ġwhole": 8255,
      "alculate": 8256,
      "gorithm": 8257,
      "ï¼ļãĢĮ": 8258,
      "åľ°ä¸Ĭ": 8259,
      "éĢ²åĮĸ": 8260,
      "å°ıçĭĹ": 8261,
      "æ°´åĴĮ": 8262,
      "åĽŀé¡§": 8263,
      "åħ©èĢħ": 8264,
      "åŁİåįĢ": 8265,
      "ĠOn": 8266,
      "ogn": 8267,
      "é¨Ļ": 8268,
      "Ġjumps": 8269,
      "ĠÑģ": 8270,
      "å¤§èĩªçĦ¶": 8271,
      "æĮĸ": 8272,
      "å±ķè¦½": 8273,
      "Ġconcent": 8274,
      "åİ»ä¸ĸ": 8275,
      "æĺ¯åĲ¦éľĢè¦ģ": 8276,
      "å£ĵç¸®": 8277,
      "Ġsquare": 8278,
      "66": 8279,
      "çļĦä¾ĭåŃĲ": 8280,
      "ä¸ĢæĿ¯": 8281,
      "erc": 8282,
      "åįĬå¾ĳ": 8283,
      "æĺ¥å¤©": 8284,
      "ä½¿çĶ¨èĢħåı¯èĥ½å¸ĮæľĽ": 8285,
      "è¾£æ¤Ĵ": 8286,
      "çļĦåı¯": 8287,
      "ĠEn": 8288,
      "è©©äºº": 8289,
      "å¹´è¼ķäºº": 8290,
      "Ġdescribe": 8291,
      "æľīçĽĬ": 8292,
      "Ġsince": 8293,
      "ä¸ĭè¼ī": 8294,
      "Ġ--": 8295,
      "çįĦ": 8296,
      "ival": 8297,
      "ãĥ³": 8298,
      "Ġunits": 8299,
      "ccess": 8300,
      "Ġchildren": 8301,
      "æĢĸ": 8302,
      "æĺ¯ä¸Ģéłħ": 8303,
      "åľĵå½¢": 8304,
      "ä¹¾çĩ¥": 8305,
      "JavaScript": 8306,
      "Ġresponse": 8307,
      "çļĦèĥĮæĻ¯": 8308,
      "éĢĻä½¿å¾Ĺ": 8309,
      "Ġinstr": 8310,
      "ç¸±": 8311,
      "2014": 8312,
      "éĽ¢åŃĲ": 8313,
      "çľ¾å¤ļ": 8314,
      "éĿĴå¹´": 8315,
      "ç¾½æ¯Ľ": 8316,
      "éĹ¡è¿°": 8317,
      "Google": 8318,
      "ha": 8319,
      "},": 8320,
      "çĶº": 8321,
      "Ġnet": 8322,
      "ä¸»ä»»": 8323,
      "ä»£æĽ¿": 8324,
      "æ¨Ĥéĥ¨": 8325,
      "åħĴåŃĲ": 8326,
      "ä¹¾æ·¨": 8327,
      "Ġsumm": 8328,
      "Ġobjects": 8329,
      "])": 8330,
      "åĴĮåģ¥åº·": 8331,
      "Ġbas": 8332,
      "æĻļé¤Ĳ": 8333,
      "Ġlearning": 8334,
      "èªªåĩºä½ł": 8335,
      "ground": 8336,
      "Ġèĩ³": 8337,
      "ä¿±æ¨Ĥéĥ¨": 8338,
      "åĴĮæķĻèĤ²": 8339,
      "æĪĳæĺ¯": 8340,
      "éĩıçļĦ": 8341,
      "2011": 8342,
      "Ġleg": 8343,
      "ç¾¤å³¶": 8344,
      "éļ±èĹı": 8345,
      "ç¹ªçķ«": 8346,
      "05": 8347,
      "ä¾Ĩå¹«åĬ©": 8348,
      "Ġeas": 8349,
      "æ¯Ķåĸ»": 8350,
      "èĤĿ": 8351,
      "æįĲ": 8352,
      "è¿½æº¯": 8353,
      "æıĲåĩºäºĨ": 8354,
      "ires": 8355,
      "ï¼ļ(": 8356,
      "ctions": 8357,
      "æµ´": 8358,
      "æµ·å¹³éĿ¢": 8359,
      "æĪ°å½¹": 8360,
      "åį³å°ĩ": 8361,
      "çĦ¶å¾ĮåĽŀçŃĶåķıé¡Į": 8362,
      "èįĴ": 8363,
      "çĶ¢çĶŁçļĦ": 8364,
      "çĶŁçī©åŃ¸": 8365,
      "âĤģ": 8366,
      "çıįæĥľ": 8367,
      "æĪ¶å¤ĸæ´»åĭķ": 8368,
      "çļĦæ¥Ń": 8369,
      "Sentence": 8370,
      "Ġä¸ī": 8371,
      "ä¸Ģä»¶": 8372,
      "æĿī": 8373,
      "elta": 8374,
      "åįĢçļĦ": 8375,
      "AIçļĦ": 8376,
      "åįĹæ¥µ": 8377,
      "é¦ĸåħĪçµ¦åĩº": 8378,
      "é¦ĸåħĪèªªåĩºä½ł": 8379,
      "å¤±æ¥Ń": 8380,
      "èģ½åĪ°": 8381,
      "åŃ¸çĶŁçļĦ": 8382,
      "Ġstanding": 8383,
      "çļĦæ·±å±¤éľĢæ±Ĥ": 8384,
      "é¦ĸåħĪèªªåĩºä½łçļĦæĢĿèĢĥéģİç¨ĭ": 8385,
      "mpt": 8386,
      "å°ĩå®ĥåĢĳ": 8387,
      "omes": 8388,
      "ush": 8389,
      "ĠAt": 8390,
      "Ġcontrib": 8391,
      "æ¯Ķè³½ä¸Ń": 8392,
      "ä¸įåı¯æĪĸç¼º": 8393,
      "æİĪæ¬Ĭ": 8394,
      "åĦªç§ĢçļĦ": 8395,
      "çļĦçĻ¼çĶŁ": 8396,
      "å·ĸ": 8397,
      "ä½Ĩå®ĥ": 8398,
      "æĬĢè¡ĵçļĦçĻ¼å±ķ": 8399,
      "åİŁæĸĩ": 8400,
      "ç¦¦": 8401,
      "åĦªè³ª": 8402,
      "Ġmakes": 8403,
      "åį±æ©Ł": 8404,
      "é¦ĸåħĪçµ¦åĩºæĢĿèĢĥéģİç¨ĭ": 8405,
      "çļĦè§Ĵèī²": 8406,
      "åĴĮåĢĭäºº": 8407,
      "ä¸įå¾Ĺ": 8408,
      "ither": 8409,
      "ç¶±": 8410,
      "---": 8411,
      "åĲĦåľĭ": 8412,
      "ired": 8413,
      "Ġrelated": 8414,
      "Ð½Ð¸": 8415,
      "éĻªä¼´": 8416,
      "æ¡ĳ": 8417,
      "ĠIm": 8418,
      "ĠShe": 8419,
      "raw": 8420,
      "çĴ°å¢ĥåķıé¡Į": 8421,
      "Ġimply": 8422,
      "Ġzero": 8423,
      "ç¾İåĳ³çļĦ": 8424,
      "èĸªè³ĩ": 8425,
      "ommend": 8426,
      "Ġ->": 8427,
      "ä»ĸæĽ¾": 8428,
      "çĪĽ": 8429,
      "è«ĭä»Ķç´°": 8430,
      "å»¶éķ·": 8431,
      "åĤĳåħĭ": 8432,
      "^\\": 8433,
      "Ġtri": 8434,
      "å·¥äºº": 8435,
      "åı¯èĥ½åŃĺåľ¨": 8436,
      "Ġris": 8437,
      "ources": 8438,
      "åľįç¹ŀ": 8439,
      "é¹¼": 8440,
      "Ùĩ": 8441,
      "çļĦæŀ": 8442,
      "Ġfree": 8443,
      "éľĢè¦ģéĢ²è¡Į": 8444,
      "å®¶éķ·": 8445,
      "èĳĽ": 8446,
      "Ġconcept": 8447,
      "ĠEar": 8448,
      "å®¶åºŃæĪĲåĵ¡": 8449,
      "æĩ¼": 8450,
      "Ġacceler": 8451,
      "Ġcosts": 8452,
      "æıŃç¤º": 8453,
      "alk": 8454,
      "ä¸ĭä¸ĢåĢĭ": 8455,
      "å¤§æĸ¼": 8456,
      "èĹ¤": 8457,
      "çŀ¬": 8458,
      "éģķæ³ķ": 8459,
      "Ġenvironment": 8460,
      "çļĦèĩªçĦ¶": 8461,
      "åĴĮéľĢæ±Ĥ": 8462,
      "ä¸ŃæĢ§": 8463,
      "Ġpath": 8464,
      "Ġfive": 8465,
      "çĴ°ç¯Ģ": 8466,
      "éģ¸æīĭ": 8467,
      "æµ·éĤĬ": 8468,
      "éĽ£åº¦": 8469,
      "æĹ©é¤Ĳ": 8470,
      "ä¸Ģæ¬¡æĢ§": 8471,
      "åļ´éĩįçļĦ": 8472,
      "Ġgeneral": 8473,
      "ges": 8474,
      "åĲĮç¾©è©ŀ": 8475,
      "ä¸¦ç¢ºä¿Ŀ": 8476,
      "æĶ¶çĽĬ": 8477,
      "ç²¾åĬĽ": 8478,
      "Ġexplain": 8479,
      "ç©Ĩæĸ¯æŀĹ": 8480,
      "çĤºä¸ĢåĢĭ": 8481,
      "Ġworking": 8482,
      "Ġstatement": 8483,
      "çįħåŃĲ": 8484,
      "(-": 8485,
      "Ġåħĥ": 8486,
      "çļĦæŃ¥é©Ł": 8487,
      "äººæĢ§": 8488,
      "Ġfox": 8489,
      "æľĢåĸľæŃ¡çļĦ": 8490,
      "åĳĤ": 8491,
      "çĪ¸": 8492,
      "åıĸåĩº": 8493,
      "æ¨£æľ¬": 8494,
      "æĶ¯åĩº": 8495,
      "Ġuses": 8496,
      "ä»Ĭå¹´": 8497,
      "Ġperiod": 8498,
      "Ġquestions": 8499,
      "Ġmoment": 8500,
      "74": 8501,
      "çļĦéģĭåĭķ": 8502,
      "æĸ¥": 8503,
      "æĺ¯åĽłçĤº": 8504,
      "çŃīç´ļ": 8505,
      "æĵħ": 8506,
      "æĸ¯ç§ĳ": 8507,
      "è¨Ńè¨ĪåĴĮ": 8508,
      "Ġstrong": 8509,
      "å¯¶å¯¶": 8510,
      "éłĨåĪ©": 8511,
      "ç§ĺå¯Ĩ": 8512,
      "çļĦæĽ´": 8513,
      "Ġdescrib": 8514,
      "å¥§éģĭæľĥ": 8515,
      "CH": 8516,
      "çļĦè³ªéĩı": 8517,
      "Ġpres": 8518,
      "Ġindu": 8519,
      "ï¼ĽâĢ¢": 8520,
      "æķıæį·": 8521,
      "Ð·": 8522,
      "ica": 8523,
      "èªŀç¾©": 8524,
      "åŃ¸ç¿Ĵæĸ°": 8525,
      "æİ¥å£¤": 8526,
      "Ġwhy": 8527,
      "Ġnear": 8528,
      "éĤĬç·£": 8529,
      "éĪ´": 8530,
      "éģ®": 8531,
      "ä¾ĭéłħ": 8532,
      "ids": 8533,
      "æķħéļľ": 8534,
      "æģ©çľģ": 8535,
      "Ġacross": 8536,
      "çµ¦åĩºä½łçļĦçŃĶæ¡Ī": 8537,
      "af": 8538,
      "ones": 8539,
      "å·¥è³ĩ": 8540,
      "å¾ŀä»¥ä¸ĭ": 8541,
      "ä¸ĸçķĮä¸Ĭ": 8542,
      "çµ¦åĩºçŃĶæ¡Ī": 8543,
      "oci": 8544,
      "ç¬¬äºĮæ¬¡": 8545,
      "é¾Ĳ": 8546,
      "æĬ½è±¡": 8547,
      "å¥§æŀĹåĮ¹åħĭéģĭåĭķæľĥ": 8548,
      "å¤§æĪ°": 8549,
      "ĠAr": 8550,
      "è¶ħå¸Ĥ": 8551,
      "è§£çŃĶéģİç¨ĭ": 8552,
      "Ar": 8553,
      "ina": 8554,
      "äººæīį": 8555,
      "Ġins": 8556,
      "æĭĸ": 8557,
      "å¤©æ´¥": 8558,
      "ç¶Ńåº¦": 8559,
      "ç¶Ńä¿®": 8560,
      "èĨ©": 8561,
      "éĸĭçĻ¼èĢħ": 8562,
      "åĩºçı¾äºĨ": 8563,
      "ube": 8564,
      "Ġrecall": 8565,
      "çļĦæĿ±è¥¿": 8566,
      ")ãĢĤ": 8567,
      "}^": 8568,
      "Ġê": 8569,
      "çĦ¶å¾Įçµ¦åĩºä½łçļĦçŃĶæ¡Ī": 8570,
      "å¹¾ä½ķ": 8571,
      "Ġhuman": 8572,
      "è«ĭä»Ķç´°èªįçľŁåľ°æĢĿèĢĥ": 8573,
      "Step": 8574,
      "over": 8575,
      "çļĦå¥³": 8576,
      "çļĦå®ļç¾©": 8577,
      "ining": 8578,
      "åĭ³": 8579,
      "éģ¸æĵĩåĲĪéģ©çļĦ": 8580,
      "æĿİæĺİ": 8581,
      "çĩĪåħī": 8582,
      "åģ¶æķ¸": 8583,
      "é¯¨": 8584,
      "Def": 8585,
      "IS": 8586,
      "åı¢": 8587,
      "æ³¨æĦıäºĭéłħ": 8588,
      "èģŀåĲį": 8589,
      "Ġsurface": 8590,
      "çĸ²åĭŀ": 8591,
      "120": 8592,
      "::": 8593,
      "ĠæĪĸèĢħ": 8594,
      "å¦ĤåĲĮ": 8595,
      "ç¸«": 8596,
      "Ġ$,": 8597,
      "Ġ62": 8598,
      "Ġown": 8599,
      "Ġconsistent": 8600,
      "RE": 8601,
      "Sp": 8602,
      "wh": 8603,
      "Øª": 8604,
      "ä»¥éģ¿åħį": 8605,
      "Ġcrit": 8606,
      "array": 8607,
      "æľĢä½İ": 8608,
      "ç¨®åŃĲ": 8609,
      "æİ¥ç¨®": 8610,
      "ands": 8611,
      "ĠWorld": 8612,
      "æ¶Īå¤±": 8613,
      "ification": 8614,
      "ung": 8615,
      "åĮĹæ¥µ": 8616,
      "nts": 8617,
      "ï¼ģâĢĿ": 8618,
      ",\"": 8619,
      "Ġpresent": 8620,
      "åı¯èĥ½å°į": 8621,
      "Ġlow": 8622,
      "Ġå¹´çļĦ": 8623,
      "åħ©åĢį": 8624,
      "`ãĢĤ": 8625,
      "ĠæıĲä¾Ľ": 8626,
      "æĺ¯åĢĭ": 8627,
      "ç±Į": 8628,
      "è£Ŀä¿®": 8629,
      "æĭĵå±ķ": 8630,
      "çļĦæŁĲ": 8631,
      "95": 8632,
      "Ġcult": 8633,
      "è«ĭèªįçľŁæĢĿèĢĥ": 8634,
      "æ°´åĪĨ": 8635,
      "å·´è¥¿": 8636,
      "ably": 8637,
      "ä¸¦ä¸Ķçµ¦åĩºä½łçļĦ": 8638,
      "iction": 8639,
      "Ġcarbon": 8640,
      "ä¸¦ä¸Ķçµ¦åĩºä½łçļĦè§£çŃĶéģİç¨ĭ": 8641,
      "ä¸įè®Ĭ": 8642,
      "Ġansw": 8643,
      "ä½łå°į": 8644,
      "æĺŁç³»": 8645,
      "é¦ĸåħĪçµ¦åĩºä½łçļĦæİ¨çĲĨéģİç¨ĭ": 8646,
      "æ¬ĬçĽĬ": 8647,
      "Ġlazy": 8648,
      "å°¤åħ¶æĺ¯åľ¨": 8649,
      "çĦ¶å¾ĮéĢ²è¡ĮåĽŀçŃĶ": 8650,
      "NO": 8651,
      "inci": 8652,
      "äººå¿ĥ": 8653,
      "åĩĨ": 8654,
      "Ġant": 8655,
      "ived": 8656,
      "ç«ĭæ³ķ": 8657,
      "ç¥Ń": 8658,
      "æķ´éĻ¤": 8659,
      "Ġratio": 8660,
      "çµĤæĸ¼": 8661,
      "äººå·¥æĻºæħ§æĬĢè¡ĵçļĦ": 8662,
      "é¹¿": 8663,
      "éŁ³è¨Ĭ": 8664,
      "ĠPr": 8665,
      "æıĲé«ĺäºĨ": 8666,
      "Ġ2016": 8667,
      "çīĪæ¬Ĭ": 8668,
      "æĶ¹è®ĬäºĨ": 8669,
      "èªįèŃĺåĪ°": 8670,
      "è¨±åı¯æ¬Ĭ": 8671,
      "æĤ¨å¥½": 8672,
      "2012": 8673,
      "æ¢ģ": 8674,
      "åľĸæ¡Ī": 8675,
      "èŀº": 8676,
      "å¢ŀåĬłäºĨ": 8677,
      "ä¸įåħ¬å¹³": 8678,
      "å¸¸çĶ¨": 8679,
      "æ©ŁéĹľ": 8680,
      "è«ĭéĢ²è¡Į": 8681,
      "å¾Īå¥½çļĦ": 8682,
      "æİ¨æĸ·": 8683,
      "ç©¿éģİ": 8684,
      ")/": 8685,
      "èĩĤ": 8686,
      "çŃīå¤ļç¨®": 8687,
      "å¤§åįĢ": 8688,
      "å¤ĸåľĭ": 8689,
      "çłĶç©¶è¡¨æĺİ": 8690,
      "æ²³æµģ": 8691,
      "ä¸ĭéĿ¢æĺ¯": 8692,
      "ĠJava": 8693,
      "å¥§æĸ¯": 8694,
      "éĢĻè£¡çļĦ": 8695,
      "ä¹ĺå®¢": 8696,
      "Ġcharacters": 8697,
      "Ġmarket": 8698,
      "Ġnp": 8699,
      "æľĪä»½": 8700,
      "ç¾İå¦Ļ": 8701,
      "åĪ¥äºº": 8702,
      "çĶŁæĪĲçļĦ": 8703,
      "Ġneeded": 8704,
      "çįİéłħ": 8705,
      "çĤİçĨ±": 8706,
      "åĴĮé«ĺ": 8707,
      "åĴĮæĻºæħ§": 8708,
      "Ġlove": 8709,
      "è«ĭçµ¦åĩºä½ł": 8710,
      "çµĲå°¾": 8711,
      "äººå·¥æĻºæħ§åı¯ä»¥": 8712,
      "ç½©": 8713,
      "åľĸå½¢": 8714,
      "æīĵæĵĬ": 8715,
      "ç©¿è¶Ĭ": 8716,
      "Ġemploy": 8717,
      "æį·åħĭ": 8718,
      "éģįæŃ·": 8719,
      "Web": 8720,
      "è¦ģé»ŀ": 8721,
      "Ġcirc": 8722,
      "ä¾Ĩæ¸Ľå°ĳ": 8723,
      "Ġmessage": 8724,
      "èĩªæ²»": 8725,
      "åŃĹåħ¸": 8726,
      "ãģ¦": 8727,
      "ãĤ¹": 8728,
      "ç¹¼æī¿": 8729,
      "Ġmeaning": 8730,
      "æĬĳåĪ¶": 8731,
      "46": 8732,
      "77": 8733,
      "AS": 8734,
      "Ġput": 8735,
      "Ġyellow": 8736,
      "åıįå°Ħ": 8737,
      "indows": 8738,
      "æİ¢è¨İäºĨ": 8739,
      "çļĦæĢĿèĢĥéģİç¨ĭåĴĮçŃĶæ¡Ī": 8740,
      "è«ĭçµ¦åĩºä½łçļĦæĢĿèĢĥéģİç¨ĭåĴĮçŃĶæ¡Ī": 8741,
      "ä¸įåĪ°": 8742,
      "æĢĴ": 8743,
      "oud": 8744,
      "è£¡éĿ¢": 8745,
      "èĻŁç¢¼": 8746,
      "å¨ĥ": 8747,
      "æºĸåĤĻå¥½": 8748,
      "ä¾·éĻĲ": 8749,
      "85": 8750,
      "96": 8751,
      "ĠéĢĻäºĽ": 8752,
      "åĴĮæľĭåıĭ": 8753,
      "ä½ĨæĪĳ": 8754,
      "idth": 8755,
      "å¾Īæľī": 8756,
      "å¾Īå¿«": 8757,
      "åı¯èĥ½æľĥå½±éŁ¿": 8758,
      "æ¶Īæ¥µ": 8759,
      "åľĭå®¶åħ¬åľĴ": 8760,
      "éĢĻä¸įåĥħ": 8761,
      "Ġmoney": 8762,
      "å·¥å»ł": 8763,
      "è«ĭæł¹æĵļ": 8764,
      "Ġconnect": 8765,
      "Ġweek": 8766,
      "æ£²æģ¯": 8767,
      "éĢĻæ¨£åı¯ä»¥": 8768,
      "ills": 8769,
      "é£²é£Łç¿Ĵæħ£": 8770,
      "çĶŁæħĭçĴ°å¢ĥ": 8771,
      "å¿«éĢŁçĻ¼å±ķ": 8772,
      "æŀ¶æ§ĭ": 8773,
      "Ġcolum": 8774,
      "æ§½": 8775,
      "å¹´è¼ķçļĦ": 8776,
      "Ġmusic": 8777,
      "Ġç¬¬": 8778,
      "att": 8779,
      "éĢ²èĢĮ": 8780,
      "ĠAnd": 8781,
      "å¼·çļĦ": 8782,
      "istic": 8783,
      "Ġasking": 8784,
      "èĥĥ": 8785,
      "çĹħæĥħ": 8786,
      "ç¥ŀå¥ĩ": 8787,
      "ç¶²è·¯å®īåħ¨": 8788,
      "å·®è·Ŀ": 8789,
      "çŃĨè¨ĺ": 8790,
      "çļĦæ¨Ļæºĸ": 8791,
      "APP": 8792,
      "åĴĮä¸ĢåĢĭ": 8793,
      "Ġmechan": 8794,
      "å¥½å¥ĩ": 8795,
      "èĽĩ": 8796,
      "åľĺéļĬåĲĪä½ľ": 8797,
      "åķŁçĻ¼": 8798,
      "Ġprev": 8799,
      "ç¢³æİĴæĶ¾": 8800,
      "åĴĮæ³ķå¾ĭ": 8801,
      "æĮº": 8802,
      "èº«é«ĺ": 8803,
      "place": 8804,
      "æī¿èªį": 8805,
      "è¿Ńä»£": 8806,
      "çļĦæ¤į": 8807,
      "][": 8808,
      "æĺ¯ç¾İåľĭ": 8809,
      "Ġcity": 8810,
      "éľĢè¦ģæł¹æĵļ": 8811,
      "æ¸ħæĸ°": 8812,
      "2008": 8813,
      "Ġsystems": 8814,
      "èªįçľŁåľ°æĢĿèĢĥä¸ĭéĿ¢çļĦåķıé¡Į": 8815,
      "ä¸ĬéĿ¢çļĦåķıé¡Į": 8816,
      "è«ĭä¸ĢæŃ¥ä¸ĢæŃ¥èªįçľŁåľ°æĢĿèĢĥä¸ĭéĿ¢çļĦåķıé¡Į": 8817,
      "Ġé¦¬": 8818,
      "è¦ģä¿ĿæĮģ": 8819,
      "æĪĲå¹´": 8820,
      "äººå·¥æĻºæħ§å°ĩ": 8821,
      "èŃ°æľĥ": 8822,
      "æ¿«": 8823,
      "æŃ§è¦ĸåĴĮ": 8824,
      "Ġque": 8825,
      "åī©ä¸ĭ": 8826,
      "ç´Ĳç´Ħå¸Ĥ": 8827,
      "æĺ¯éĿŀå¸¸éĩįè¦ģçļĦ": 8828,
      "Ġ2000": 8829,
      "è¡¨æĥħ": 8830,
      "å¾ĪéĽ£": 8831,
      "è¼ĥå¤§": 8832,
      "åĽŀçŃĶä¸ĬéĿ¢çļĦåķıé¡Į": 8833,
      "åģľè»Ĭ": 8834,
      "çļĦæ¨¡åŀĭ": 8835,
      "Ġesp": 8836,
      "åĴĮåīµæĸ°": 8837,
      "åľ¨éģİåİ»": 8838,
      "æ¡¶": 8839,
      "Ġreview": 8840,
      "æŁ´": 8841,
      "çģĳ": 8842,
      "èĬ±æľµ": 8843,
      "éĤĦæľīåħ¶ä»ĸ": 8844,
      "æļĹç¤º": 8845,
      "æıĴåħ¥": 8846,
      "Ġmagnetic": 8847,
      "Ġanswers": 8848,
      "==": 8849,
      "å°įç¤¾æľĥ": 8850,
      "å¦Ĥæŀľæľī": 8851,
      "ç°¡ä»ĭ": 8852,
      "Ġ2011": 8853,
      "å¯«ä¸Ģç¯ĩéĹľæĸ¼äººå·¥æĻºæħ§": 8854,
      "è°·æŃĮ": 8855,
      "RL": 8856,
      "circ": 8857,
      "èĢį": 8858,
      "å¥Ķ": 8859,
      "leep": 8860,
      "éĢļéģĵ": 8861,
      "Ġhome": 8862,
      "å¤ªå¹³": 8863,
      "ç´¢å¼ķ": 8864,
      "èĤīé¡ŀ": 8865,
      "åŃ©åŃĲçļĦ": 8866,
      "ç¤¦çī©è³ª": 8867,
      "æ©Ħæ¬ĸæ²¹": 8868,
      "Ġé«ĺ": 8869,
      "å¤§å¤§": 8870,
      "Ġder": 8871,
      "Ġnuc": 8872,
      "Ġlate": 8873,
      "æŁı": 8874,
      "å¿ĥä¸Ń": 8875,
      "åŃĹåŀĭ": 8876,
      "è©¦é©Ĺ": 8877,
      "è©³ç´°è³ĩè¨Ĭ": 8878,
      "ä¼ĳéĸĴ": 8879,
      "å¿½çķ¥": 8880,
      "åª½åª½": 8881,
      "file": 8882,
      "ĠçŃī": 8883,
      "éľĢè¦ģæĪĳåĢĳ": 8884,
      "éĢļå¸¸éľĢè¦ģ": 8885,
      "çĦ¶å¾Įåģļåĩº": 8886,
      "çĦ¶å¾Įçµ¦åĩºçŃĶæ¡Ī": 8887,
      "çĥĺ": 8888,
      "åįĩé«ĺ": 8889,
      "Ġapplic": 8890,
      "Ġintern": 8891,
      "ystem": 8892,
      "Ġå°įæĸ¼": 8893,
      "Ġåĩ½å¼ı": 8894,
      "ä»ĩ": 8895,
      "æĪĳçļĦæĢĿèĢĥéģİç¨ĭ": 8896,
      "å¹´åº¦": 8897,
      "å®īéĿľ": 8898,
      "æĻĤéĸĵåħ§": 8899,
      "avor": 8900,
      "æ¸ħçĲĨ": 8901,
      "å¹¾ç¨®": 8902,
      "å³½": 8903,
      "åı¦ä¸Ģç¨®": 8904,
      "è¡¨éģĶæĸ¹å¼ı": 8905,
      "Ġsolve": 8906,
      "åĨ·éĿľ": 8907,
      "çĦ¶å¾Įåģļåĩºè§£çŃĶ": 8908,
      "ĠÂ": 8909,
      "åĵ¦": 8910,
      "Ġmax": 8911,
      "çµ¦æĪĳä¸ĢäºĽ": 8912,
      "éŃļé¡ŀ": 8913,
      "æ¦Ĥè¿°": 8914,
      "è¨İè«ĸäºĨ": 8915,
      "aking": 8916,
      "dam": 8917,
      "Ġä¸į": 8918,
      "å¤ķ": 8919,
      "åľ¨çı¾ä»£": 8920,
      "çıĬ": 8921,
      "Ġlen": 8922,
      "å¾ŀå°ı": 8923,
      "çĦ¡éľĢ": 8924,
      "èŃ·çĲĨ": 8925,
      "èĨ½": 8926,
      "Ġenc": 8927,
      "ç¿»èŃ¯çĤº": 8928,
      "å¾©éĽľ": 8929,
      "åĪĿåŃ¸èĢħ": 8930,
      "æĢ§æł¼": 8931,
      "ç¸½åĴĮ": 8932,
      "å¾Īå¤§çļĦ": 8933,
      "æĶ¶åĪ°": 8934,
      "æįī": 8935,
      "Ġdifference": 8936,
      "ä¸ĢæŃ¥ä¸ĢæŃ¥çļĦæİ¨çĲĨ": 8937,
      "è«ĭéĢ²è¡Įä¸ĢæŃ¥ä¸ĢæŃ¥çļĦæİ¨çĲĨ": 8938,
      "Er": 8939,
      "éĸĵçļĦ": 8940,
      "èµ¤": 8941,
      "åİŁæľ¬": 8942,
      "æ¨Ļè¨»": 8943,
      "Ġask": 8944,
      "resp": 8945,
      "çĵ£": 8946,
      "çĤºæĤ¨æıĲä¾Ľ": 8947,
      "åľ¨æŁĲäºĽæĥħæ³ģä¸ĭ": 8948,
      "è¬Ĥèªŀ": 8949,
      "Un": 8950,
      "kg": 8951,
      "åµ": 8952,
      "Ġ120": 8953,
      "æŃ¥è¡Į": 8954,
      "æĸĩåĮĸä¸Ń": 8955,
      "Ġ2018": 8956,
      "åĤ¾èģ½": 8957,
      "åĴĮå°ı": 8958,
      "åľ¨è¨±å¤ļ": 8959,
      "Ġcare": 8960,
      "éģİçļĦ": 8961,
      "æ¼¿": 8962,
      "ĠAs": 8963,
      "åıĹåĪ°äºĨ": 8964,
      "unction": 8965,
      "æ¯Ķå¦Ĥèªª": 8966,
      "ä¸Ńåľĭå¤§éĻ¸": 8967,
      "Ġ2020": 8968,
      "è³ĩæºĲçļĦ": 8969,
      "å¤§åĪ©äºŀ": 8970,
      "èĥ¡èĺ¿èĶĶ": 8971,
      "PC": 8972,
      "çļĦçĭĢæħĭ": 8973,
      "åĴĮçĴ°å¢ĥ": 8974,
      "éĸ£": 8975,
      "åı¯èĥ½ä¸į": 8976,
      "aster": 8977,
      "ç¿ł": 8978,
      "Ġlay": 8979,
      "ists": 8980,
      "Ġarg": 8981,
      "éĭĴ": 8982,
      "è®ĵæĪĳåĢĳèªįçľŁåľ°æĢĿèĢĥ": 8983,
      "é¡ŀä¼¼æĸ¼": 8984,
      "çļĦæĶ¿çŃĸ": 8985,
      "è®ĵæĪĳåĢĳèªįçľŁåľ°æĢĿèĢĥéĢĻåĢĭåķıé¡Į": 8986,
      "æ¡Ĥ": 8987,
      "åħ·é«Ķä¾Ĩèªª": 8988,
      "åĳ¨éķ·": 8989,
      "Ġwomen": 8990,
      "çĥıåħĭèĺŃ": 8991,
      "æĶľå¸¶": 8992,
      "board": 8993,
      "Ġchemical": 8994,
      "just": 8995,
      "æĺ¯ä¸įæĺ¯": 8996,
      "éĢĻä»½": 8997,
      "åľ°åĽŀçŃĶåķıé¡Į": 8998,
      "ä¸ĬåįĪ": 8999,
      "osed": 9000,
      "é¦ĸéĥ½": 9001,
      "åı¸æ³ķ": 9002,
      "çµ¦æĪĳä¸ĢåĢĭ": 9003,
      "mb": 9004,
      "ï¼ļ$": 9005,
      "æ´»åĬĽ": 9006,
      "èº«éĤĬ": 9007,
      "æĮĩæı®": 9008,
      "åĺ´": 9009,
      "æĺİç¢ºçļĦ": 9010,
      "ä½ĽæķĻ": 9011,
      "åĸ¬æ²»": 9012,
      "Ġstudents": 9013,
      "of": 9014,
      "sub": 9015,
      "Ġcard": 9016,
      "çŃīè³ĩè¨Ĭ": 9017,
      "ä¸¦ä½¿çĶ¨": 9018,
      "ä¹ĭæĹħ": 9019,
      "å®ĥå°ĩ": 9020,
      "åĲįåı«": 9021,
      "éĿŀå¸¸éĩįè¦ģçļĦ": 9022,
      "çģ«å±±": 9023,
      "Ġactiv": 9024,
      "Ġå¹³æĸ¹åħ¬éĩĮ": 9025,
      "https": 9026,
      "AM": 9027,
      "ĠçĶ¨": 9028,
      "æĺ¯çĤºäºĨ": 9029,
      "ï¼ļ'": 9030,
      "ä½įæķ¸": 9031,
      "ection": 9032,
      "å®ĮæĪĲä»»åĭĻ": 9033,
      "ä¾ĿçĦ¶": 9034,
      "ä»ĭç´¹ä¸Ģä¸ĭ": 9035,
      "å»ºç¯īçī©": 9036,
      "Ġkeep": 9037,
      "Com": 9038,
      "me": 9039,
      "path": 9040,
      "çļĦåĭķçī©": 9041,
      "èªķ": 9042,
      "ä¸įå¹³çŃī": 9043,
      "è³ĩæľ¬": 9044,
      "ĠSE": 9045,
      "å·¥ä½ľåĴĮ": 9046,
      "ĠBe": 9047,
      "å±±å³°": 9048,
      "ç´ļåĪ¥": 9049,
      "Ġmaxim": 9050,
      "å¡ŀçĪ¾": 9051,
      "ä¹³éħª": 9052,
      "Ġfamily": 9053,
      "çļĦå¹«åĬ©": 9054,
      "icy": 9055,
      "Ġecon": 9056,
      "çľĭéĽ»å½±": 9057,
      "ç²¹": 9058,
      "çİĭåľĭ": 9059,
      "çĻ¼çĶŁäºĨ": 9060,
      "åīµéĢłåĩº": 9061,
      "ä½łåı¯ä»¥ä½¿çĶ¨": 9062,
      "ĠClass": 9063,
      "NN": 9064,
      "Ġrow": 9065,
      "æ±Ĺ": 9066,
      "éĢļçĶ¨": 9067,
      "Ġhard": 9068,
      "çİ«": 9069,
      "å®¹åĻ¨": 9070,
      "è±Ķ": 9071,
      "å¸ĮæľĽéĢĻäºĽ": 9072,
      "çİ©èĢį": 9073,
      "Ġteam": 9074,
      "Ġcalled": 9075,
      "æĪĳä¸įèĥ½": 9076,
      "åĲĪè¦ı": 9077,
      "aches": 9078,
      "raction": 9079,
      "Ġve": 9080,
      "ĠEach": 9081,
      "æį²": 9082,
      "çļĦæł¼": 9083,
      "åıįæĺłäºĨ": 9084,
      "ãĢĪ": 9085,
      "è«ĭå¹«æĪĳ": 9086,
      "ç¹ģæ®ĸ": 9087,
      "å©ļç¦®": 9088,
      "çļĦæ²Ļ": 9089,
      "Ġrunning": 9090,
      "è³¦äºĪ": 9091,
      "ä½ľæ¥Ńç³»çµ±": 9092,
      "71": 9093,
      "Ġ_": 9094,
      "éłĺè¢ĸ": 9095,
      "æ»ĭ": 9096,
      "æīĢä»¥æľĢçµĤçļĦçŃĶæ¡Īæĺ¯": 9097,
      "èĺĳ": 9098,
      "çµĲæ§ĭåĴĮ": 9099,
      "There": 9100,
      "çļĦæ¨Ļé¡Į": 9101,
      "è«ĭä¸ĢæŃ¥ä¸ĢæŃ¥åľ°åĽŀçŃĶåķıé¡Į": 9102,
      "ä¸Ģçīĩ": 9103,
      "å·«": 9104,
      "æľĢæĹ©": 9105,
      "éĥ¨éķ·": 9106,
      "è©²åħ¬åı¸": 9107,
      "å·¥ä½ľæķĪçİĩ": 9108,
      "å¥¹åľ¨": 9109,
      "èĩ¨æĻĤ": 9110,
      "åĮĹäº¬å¸Ĥ": 9111,
      "ÙĪ": 9112,
      "ä¸Ńéĥ¨": 9113,
      "æľĢåĸľæŃ¡": 9114,
      "ä¸īå¹´": 9115,
      "åİ»éĻ¤": 9116,
      "Ġabove": 9117,
      "å¤©æ°£éłĲåł±": 9118,
      "çĨĬè²ĵ": 9119,
      "é«Ķçı¾äºĨ": 9120,
      "OS": 9121,
      "Ġsize": 9122,
      "æĪĳè¦ºå¾Ĺ": 9123,
      "ä¾ĨåĪ°": 9124,
      "éĩįåĬĽ": 9125,
      "èĢĮæĪĲ": 9126,
      "é¦¬æĭī": 9127,
      "ensive": 9128,
      "è¾²æĿĳ": 9129,
      "å¤ªç©ºæİ¢ç´¢": 9130,
      "å·´é»İåľ°éĲµ": 9131,
      "å±ķçı¾äºĨ": 9132,
      "Ġbooks": 9133,
      "Ġjourney": 9134,
      "back": 9135,
      "éĢĻé¡ŀ": 9136,
      "ï¼Ł\"": 9137,
      "çµ¦äºĨ": 9138,
      "æ¢¨": 9139,
      "èĩ³ä»Ĭ": 9140,
      "ç·¨èĻŁ": 9141,
      "èĵ®": 9142,
      "éĿĴå°ĳå¹´": 9143,
      "ç¿»èŃ¯æĪĲèĭ±æĸĩ": 9144,
      "æĺ¯åŁºæĸ¼": 9145,
      "æĪĸæľįåĭĻ": 9146,
      "ä»ĸäººçļĦ": 9147,
      "æĽ´æ·±åħ¥": 9148,
      "ä½Ĩå®ĥåĢĳ": 9149,
      "åĲĳä¸Ĭ": 9150,
      "avior": 9151,
      "å°İèĩ´çļĦ": 9152,
      "çī¹åĪ¥æĺ¯åľ¨": 9153,
      ")**:": 9154,
      "éĩ£": 9155,
      "ç¨Ģ": 9156,
      "åŁĶ": 9157,
      "åĲĮåŃ¸": 9158,
      "éĢĻäºĽéĥ½æĺ¯": 9159,
      "osp": 9160,
      "æµ·å²¸": 9161,
      "Ġcontain": 9162,
      "Ġtypes": 9163,
      "æģĲæĢĸ": 9164,
      "åĦªåħĪéłĨåºı": 9165,
      "ä½Ĩä»ĸ": 9166,
      "è®ĬçĤº": 9167,
      "Ġcontains": 9168,
      "Ġproduce": 9169,
      "ÑĢÐ°": 9170,
      "æ¾³å¤§åĪ©äºŀ": 9171,
      "Ġmonth": 9172,
      "æĪĳçļĦæĢĿèĢĥéģİç¨ĭå¦Ĥä¸ĭ": 9173,
      "CE": 9174,
      "æĪĳåĢĳå¿ħéłĪ": 9175,
      "Ġ(-": 9176,
      "Ġposition": 9177,
      "éĽ£é¡Į": 9178,
      "æ¹§": 9179,
      "æ³¢çī¹": 9180,
      "äº®çļĦ": 9181,
      "ä¼¯çī¹": 9182,
[...]
